/* Generated by Edge Impulse
 *
 * Permission is hereby granted, free of charge, to any person obtaining a copy
 * of this software and associated documentation files (the "Software"), to deal
 * in the Software without restriction, including without limitation the rights
 * to use, copy, modify, merge, publish, distribute, sublicense, and/or sell
 * copies of the Software, and to permit persons to whom the Software is
 * furnished to do so, subject to the following conditions:
 *
 * The above copyright notice and this permission notice shall be included in
 * all copies or substantial portions of the Software.
 *
 * THE SOFTWARE IS PROVIDED "AS IS", WITHOUT WARRANTY OF ANY KIND, EXPRESS OR
 * IMPLIED, INCLUDING BUT NOT LIMITED TO THE WARRANTIES OF MERCHANTABILITY,
 * FITNESS FOR A PARTICULAR PURPOSE AND NONINFRINGEMENT. IN NO EVENT SHALL THE
 * AUTHORS OR COPYRIGHT HOLDERS BE LIABLE FOR ANY CLAIM, DAMAGES OR OTHER
 * LIABILITY, WHETHER IN AN ACTION OF CONTRACT, TORT OR OTHERWISE, ARISING FROM,
 * OUT OF OR IN CONNECTION WITH THE SOFTWARE OR THE USE OR OTHER DEALINGS IN THE
 * SOFTWARE.
 */

#ifndef _EI_CLASSIFIER_TFLITE_LEARN_23_H_
#define _EI_CLASSIFIER_TFLITE_LEARN_23_H_

#define EI_CLASSIFIER_TFLITE_LEARN_23_ARENA_SIZE     10624
const size_t tflite_learn_23_arena_size = 10624;

#ifdef EI_CLASSIFIER_TFLITE_ARENA_SIZE
#if EI_CLASSIFIER_TFLITE_ARENA_SIZE < EI_CLASSIFIER_TFLITE_LEARN_23_ARENA_SIZE
#undef EI_CLASSIFIER_TFLITE_ARENA_SIZE
#define EI_CLASSIFIER_TFLITE_ARENA_SIZE EI_CLASSIFIER_TFLITE_LEARN_23_ARENA_SIZE
#endif // #if EI_CLASSIFIER_TFLITE_ARENA_SIZE < EI_CLASSIFIER_TFLITE_LEARN_23_ARENA_SIZE
#else
#define EI_CLASSIFIER_TFLITE_ARENA_SIZE EI_CLASSIFIER_TFLITE_LEARN_23_ARENA_SIZE
#endif // #ifdef EI_CLASSIFIER_TFLITE_ARENA_SIZE

#if defined __GNUC__
#define ALIGN(X) __attribute__((aligned(X)))
#elif defined _MSC_VER
#define ALIGN(X) __declspec(align(X))
#elif defined __TASKING__
#define ALIGN(X) __align(X)
#else
#define ALIGN(X)
#endif

ALIGN(16) const unsigned char tflite_learn_23[] = {
  0x1c, 0x00, 0x00, 0x00, 0x54, 0x46, 0x4c, 0x33, 0x14, 0x00, 0x20, 0x00,
  0x1c, 0x00, 0x18, 0x00, 0x14, 0x00, 0x10, 0x00, 0x0c, 0x00, 0x00, 0x00,
  0x08, 0x00, 0x04, 0x00, 0x14, 0x00, 0x00, 0x00, 0x1c, 0x00, 0x00, 0x00,
  0x8c, 0x00, 0x00, 0x00, 0xe4, 0x00, 0x00, 0x00, 0x64, 0x1e, 0x00, 0x00,
  0x74, 0x1e, 0x00, 0x00, 0x1c, 0x2a, 0x00, 0x00, 0x03, 0x00, 0x00, 0x00,
  0x01, 0x00, 0x00, 0x00, 0x10, 0x00, 0x00, 0x00, 0x00, 0x00, 0x0a, 0x00,
  0x10, 0x00, 0x0c, 0x00, 0x08, 0x00, 0x04, 0x00, 0x0a, 0x00, 0x00, 0x00,
  0x0c, 0x00, 0x00, 0x00, 0x1c, 0x00, 0x00, 0x00, 0x3c, 0x00, 0x00, 0x00,
  0x0f, 0x00, 0x00, 0x00, 0x73, 0x65, 0x72, 0x76, 0x69, 0x6e, 0x67, 0x5f,
  0x64, 0x65, 0x66, 0x61, 0x75, 0x6c, 0x74, 0x00, 0x01, 0x00, 0x00, 0x00,
  0x04, 0x00, 0x00, 0x00, 0x9c, 0xff, 0xff, 0xff, 0x16, 0x00, 0x00, 0x00,
  0x04, 0x00, 0x00, 0x00, 0x08, 0x00, 0x00, 0x00, 0x6f, 0x75, 0x74, 0x70,
  0x75, 0x74, 0x5f, 0x30, 0x00, 0x00, 0x00, 0x00, 0x01, 0x00, 0x00, 0x00,
  0x04, 0x00, 0x00, 0x00, 0x76, 0xe1, 0xff, 0xff, 0x04, 0x00, 0x00, 0x00,
  0x01, 0x00, 0x00, 0x00, 0x78, 0x00, 0x00, 0x00, 0x02, 0x00, 0x00, 0x00,
  0x34, 0x00, 0x00, 0x00, 0x04, 0x00, 0x00, 0x00, 0xdc, 0xff, 0xff, 0xff,
  0x19, 0x00, 0x00, 0x00, 0x04, 0x00, 0x00, 0x00, 0x13, 0x00, 0x00, 0x00,
  0x43, 0x4f, 0x4e, 0x56, 0x45, 0x52, 0x53, 0x49, 0x4f, 0x4e, 0x5f, 0x4d,
  0x45, 0x54, 0x41, 0x44, 0x41, 0x54, 0x41, 0x00, 0x08, 0x00, 0x0c, 0x00,
  0x08, 0x00, 0x04, 0x00, 0x08, 0x00, 0x00, 0x00, 0x18, 0x00, 0x00, 0x00,
  0x04, 0x00, 0x00, 0x00, 0x13, 0x00, 0x00, 0x00, 0x6d, 0x69, 0x6e, 0x5f,
  0x72, 0x75, 0x6e, 0x74, 0x69, 0x6d, 0x65, 0x5f, 0x76, 0x65, 0x72, 0x73,
  0x69, 0x6f, 0x6e, 0x00, 0x1a, 0x00, 0x00, 0x00, 0x7c, 0x1d, 0x00, 0x00,
  0x74, 0x1d, 0x00, 0x00, 0x44, 0x1d, 0x00, 0x00, 0xf4, 0x1c, 0x00, 0x00,
  0xd4, 0x1c, 0x00, 0x00, 0xb4, 0x1c, 0x00, 0x00, 0x94, 0x1c, 0x00, 0x00,
  0x74, 0x1c, 0x00, 0x00, 0x84, 0x17, 0x00, 0x00, 0x74, 0x11, 0x00, 0x00,
  0x50, 0x11, 0x00, 0x00, 0x38, 0x11, 0x00, 0x00, 0xe8, 0x00, 0x00, 0x00,
  0xe0, 0x00, 0x00, 0x00, 0xd8, 0x00, 0x00, 0x00, 0xd0, 0x00, 0x00, 0x00,
  0xc8, 0x00, 0x00, 0x00, 0xc0, 0x00, 0x00, 0x00, 0xb8, 0x00, 0x00, 0x00,
  0xb0, 0x00, 0x00, 0x00, 0xa8, 0x00, 0x00, 0x00, 0xa0, 0x00, 0x00, 0x00,
  0x98, 0x00, 0x00, 0x00, 0x90, 0x00, 0x00, 0x00, 0x70, 0x00, 0x00, 0x00,
  0x04, 0x00, 0x00, 0x00, 0x4e, 0xe2, 0xff, 0xff, 0x04, 0x00, 0x00, 0x00,
  0x5c, 0x00, 0x00, 0x00, 0x0c, 0x00, 0x00, 0x00, 0x08, 0x00, 0x0e, 0x00,
  0x08, 0x00, 0x04, 0x00, 0x08, 0x00, 0x00, 0x00, 0x14, 0x00, 0x00, 0x00,
  0x2c, 0x00, 0x00, 0x00, 0x00, 0x00, 0x0a, 0x00, 0x0c, 0x00, 0x08, 0x00,
  0x00, 0x00, 0x07, 0x00, 0x0a, 0x00, 0x00, 0x00, 0x00, 0x00, 0x00, 0x01,
  0x04, 0x00, 0x00, 0x00, 0x00, 0x00, 0x00, 0x00, 0x00, 0x00, 0x0a, 0x00,
  0x10, 0x00, 0x0c, 0x00, 0x08, 0x00, 0x04, 0x00, 0x0a, 0x00, 0x00, 0x00,
  0x03, 0x00, 0x00, 0x00, 0x02, 0x00, 0x00, 0x00, 0x04, 0x00, 0x00, 0x00,
  0x06, 0x00, 0x00, 0x00, 0x32, 0x2e, 0x31, 0x31, 0x2e, 0x31, 0x00, 0x00,
  0xb6, 0xe2, 0xff, 0xff, 0x04, 0x00, 0x00, 0x00, 0x10, 0x00, 0x00, 0x00,
  0x31, 0x2e, 0x35, 0x2e, 0x30, 0x00, 0x00, 0x00, 0x00, 0x00, 0x00, 0x00,
  0x00, 0x00, 0x00, 0x00, 0xd8, 0xd7, 0xff, 0xff, 0xdc, 0xd7, 0xff, 0xff,
  0xe0, 0xd7, 0xff, 0xff, 0xe4, 0xd7, 0xff, 0xff, 0xe8, 0xd7, 0xff, 0xff,
  0xec, 0xd7, 0xff, 0xff, 0xf0, 0xd7, 0xff, 0xff, 0xf4, 0xd7, 0xff, 0xff,
  0xf8, 0xd7, 0xff, 0xff, 0xfc, 0xd7, 0xff, 0xff, 0x00, 0xd8, 0xff, 0xff,
  0xfe, 0xe2, 0xff, 0xff, 0x04, 0x00, 0x00, 0x00, 0x40, 0x10, 0x00, 0x00,
  0x1a, 0xc1, 0xd6, 0x3e, 0x85, 0x34, 0x25, 0x3d, 0xe1, 0x95, 0x46, 0xbf,
  0xef, 0xf1, 0x9d, 0x3e, 0x26, 0xeb, 0x26, 0xbf, 0x70, 0x29, 0x83, 0xbf,
  0xab, 0xc6, 0x76, 0x3e, 0x6f, 0xdc, 0x5c, 0xbf, 0xd3, 0xd6, 0x05, 0x3f,
  0xd4, 0xcb, 0xbf, 0x3e, 0x91, 0xfe, 0x94, 0xbe, 0xf7, 0x8d, 0x4c, 0x3e,
  0x3f, 0x82, 0x5a, 0xbe, 0x88, 0xa7, 0xb8, 0x3d, 0x9a, 0xa4, 0x45, 0xbf,
  0x50, 0xfb, 0x1a, 0xbf, 0x46, 0xfa, 0xb4, 0x3e, 0x7a, 0x28, 0x83, 0x3e,
  0x2a, 0xbb, 0x13, 0x3e, 0x98, 0x53, 0x5c, 0x3e, 0xba, 0xad, 0xec, 0xbe,
  0x45, 0x72, 0x3a, 0xbf, 0x7f, 0x6f, 0x03, 0x3e, 0xf6, 0xe0, 0xdf, 0xbe,
  0xe2, 0xaa, 0x47, 0x3e, 0xeb, 0x91, 0xa0, 0x3d, 0x60, 0x63, 0xe1, 0xbe,
  0x59, 0x12, 0x36, 0x3e, 0xa6, 0xa0, 0x50, 0xbe, 0xab, 0x79, 0xb6, 0xbe,
  0x13, 0x38, 0xac, 0xbe, 0x35, 0x31, 0x2d, 0xbf, 0xf5, 0x7a, 0x18, 0x3e,
  0x79, 0x8b, 0xd5, 0x3e, 0x2c, 0x49, 0x67, 0x3e, 0x3f, 0xf5, 0x88, 0x3e,
  0x23, 0x9e, 0xc0, 0xbe, 0x35, 0xec, 0x97, 0xbf, 0xf7, 0xe6, 0xa9, 0x3e,
  0x7b, 0xea, 0x27, 0xbf, 0x3d, 0x0b, 0x8e, 0x3e, 0x33, 0x66, 0x36, 0x3e,
  0x6d, 0xeb, 0xd6, 0xbe, 0x57, 0xff, 0x0f, 0x3e, 0xcd, 0x7a, 0x23, 0xbd,
  0x5c, 0xe0, 0x00, 0xbf, 0xc6, 0xf7, 0x08, 0xbe, 0x20, 0x45, 0x10, 0xbf,
  0x07, 0x9f, 0x79, 0x3e, 0x84, 0x0c, 0xae, 0x3e, 0xa9, 0x72, 0x4f, 0x3e,
  0x6a, 0xde, 0x81, 0x3e, 0xca, 0x8e, 0x7c, 0x3d, 0xf9, 0xe0, 0x16, 0xbf,
  0xa0, 0x1f, 0x45, 0x3e, 0xfa, 0x36, 0xe3, 0xbe, 0x5e, 0x27, 0xa0, 0x3e,
  0xab, 0x98, 0xea, 0xbd, 0xb0, 0x65, 0x6b, 0xbf, 0x7e, 0x8f, 0xa4, 0x3d,
  0x52, 0xef, 0x2c, 0xbe, 0x66, 0xb1, 0xbc, 0xbe, 0x34, 0x15, 0xf6, 0xbd,
  0x4c, 0x7f, 0x10, 0xbf, 0x32, 0x95, 0xa5, 0x3e, 0x3a, 0x59, 0x93, 0x3e,
  0xce, 0xc0, 0x94, 0x3e, 0x32, 0x0b, 0xcb, 0x3e, 0x71, 0x7d, 0x09, 0xbe,
  0x8a, 0xcf, 0xca, 0xbe, 0x5b, 0x49, 0xdb, 0x3d, 0xd0, 0x10, 0x7f, 0xbe,
  0xcd, 0x2c, 0x7c, 0x3e, 0xdb, 0x08, 0xaf, 0x3d, 0x5a, 0x59, 0x08, 0xbf,
  0xb0, 0xec, 0x54, 0xbe, 0xca, 0xc1, 0xe4, 0xbe, 0x7e, 0x08, 0xef, 0xbe,
  0xca, 0xaa, 0xc9, 0xbe, 0xe9, 0x9b, 0xc3, 0xbe, 0x3b, 0x04, 0xfe, 0x3e,
  0x4c, 0x1b, 0x50, 0x3e, 0xcd, 0x34, 0x15, 0x3e, 0x5e, 0xdd, 0x9c, 0x3e,
  0x29, 0x3d, 0x4d, 0xbe, 0xd5, 0x00, 0x51, 0xbf, 0x93, 0x76, 0xd0, 0x3e,
  0xec, 0x3f, 0x57, 0xbe, 0x46, 0x33, 0xe4, 0x3e, 0xf8, 0x31, 0xdf, 0x3d,
  0x7d, 0x8b, 0x0f, 0xbf, 0xc2, 0x3b, 0x79, 0x3e, 0xf5, 0x72, 0xa0, 0x3d,
  0x5d, 0xa9, 0x13, 0xbf, 0x3d, 0x17, 0x35, 0xbf, 0x3a, 0x2f, 0x77, 0xbe,
  0xd6, 0x41, 0xde, 0x3e, 0xcd, 0x72, 0xa8, 0x3e, 0x8c, 0xf9, 0xaf, 0x3e,
  0x6f, 0x9e, 0x94, 0x3e, 0x1d, 0x4a, 0xcd, 0xbe, 0xcf, 0x27, 0x08, 0xbd,
  0x35, 0xa3, 0x78, 0x3d, 0x39, 0x45, 0x21, 0xbf, 0x15, 0x40, 0x21, 0x3e,
  0x8a, 0x8e, 0xe7, 0xbd, 0xaa, 0x02, 0x56, 0xbf, 0x53, 0x61, 0xdf, 0xbe,
  0x8b, 0x3e, 0x48, 0x3e, 0xfe, 0xa7, 0xe0, 0xbe, 0x1f, 0x8f, 0xd1, 0x3d,
  0xde, 0xd9, 0xeb, 0xbd, 0x68, 0x92, 0x8a, 0xbc, 0xc8, 0xa7, 0xf6, 0x3e,
  0x25, 0x8f, 0x49, 0x3e, 0x47, 0x38, 0x7e, 0x3e, 0xaf, 0x18, 0x2a, 0xbf,
  0xf6, 0xb0, 0x91, 0xbe, 0x9e, 0xdc, 0x90, 0x3e, 0xe5, 0x8c, 0x9e, 0xbe,
  0x54, 0x2d, 0x89, 0x3e, 0x73, 0x56, 0x22, 0xbe, 0xd0, 0x24, 0x8a, 0xbe,
  0x2d, 0x91, 0xe6, 0xbe, 0x35, 0xfc, 0xcc, 0x3e, 0x18, 0x96, 0x54, 0xbf,
  0x8a, 0x62, 0x55, 0x3d, 0xe5, 0xae, 0xcf, 0xbe, 0x63, 0x72, 0xf8, 0x3d,
  0x09, 0x56, 0x44, 0x3e, 0xed, 0x13, 0x64, 0x3e, 0x8f, 0xef, 0x26, 0x3e,
  0x4c, 0x51, 0x02, 0xbf, 0xaa, 0xfc, 0x5c, 0xbe, 0x04, 0x57, 0xa2, 0x3e,
  0xac, 0x8c, 0x80, 0xbf, 0xe5, 0x87, 0x39, 0x3e, 0x5f, 0x39, 0x89, 0x3d,
  0x6b, 0xb5, 0xba, 0xbf, 0x0b, 0x43, 0x98, 0xbe, 0x77, 0xf6, 0x04, 0x3f,
  0xce, 0x4b, 0xe8, 0xbe, 0xf1, 0xaa, 0xb0, 0xbe, 0x33, 0xf6, 0xca, 0xbd,
  0x10, 0x9a, 0xdc, 0x3e, 0xca, 0x14, 0x16, 0x3e, 0x1c, 0x9d, 0x96, 0x3e,
  0x7f, 0xd4, 0xbb, 0x3d, 0x2d, 0x13, 0x2f, 0xbf, 0x49, 0x36, 0xda, 0xbe,
  0x73, 0x4c, 0x86, 0x3e, 0xc9, 0x4a, 0xab, 0xbe, 0x91, 0xc7, 0x4a, 0x3e,
  0xb6, 0x22, 0x6d, 0x3d, 0xbe, 0x17, 0x1a, 0xbf, 0xf8, 0xdb, 0xb9, 0xbd,
  0xd8, 0xe8, 0x4f, 0x3e, 0xe3, 0x8a, 0x20, 0xbf, 0xf1, 0x42, 0x29, 0xbf,
  0xbe, 0x9e, 0xb7, 0xbe, 0xe3, 0x68, 0xda, 0x3e, 0x4e, 0x63, 0xbf, 0x3d,
  0xc4, 0x72, 0xdd, 0x3e, 0x67, 0xb7, 0x99, 0x3e, 0x95, 0x22, 0xe0, 0xbe,
  0xce, 0xeb, 0x07, 0xbf, 0xa8, 0xcb, 0x89, 0x3c, 0x0f, 0x0b, 0x4b, 0xbf,
  0x80, 0xdc, 0x43, 0x3e, 0x74, 0xa9, 0x89, 0xbe, 0x8b, 0x4e, 0x10, 0xbf,
  0x74, 0x80, 0xc6, 0xbe, 0xb7, 0x2d, 0x7b, 0x3e, 0x87, 0x64, 0x1c, 0xbf,
  0xe8, 0x76, 0x11, 0xbf, 0xb6, 0x4d, 0x27, 0xbf, 0x0f, 0xab, 0x9f, 0xbe,
  0x03, 0x7d, 0x1f, 0x3e, 0x65, 0xb3, 0x1d, 0x3d, 0x44, 0x43, 0xd5, 0x3d,
  0xc8, 0x0f, 0x8c, 0xbe, 0xa8, 0x7f, 0x53, 0xbe, 0x48, 0xd3, 0x55, 0x3c,
  0x28, 0xc1, 0xb9, 0x3d, 0x2c, 0x33, 0x2c, 0x3d, 0x4c, 0xc5, 0xb7, 0xbe,
  0x42, 0x19, 0x9d, 0xbf, 0xd4, 0x2a, 0x2a, 0xbe, 0xea, 0x98, 0x63, 0x3e,
  0x86, 0xc9, 0x6b, 0xbf, 0x4a, 0x53, 0xa4, 0xbe, 0xec, 0x5f, 0x62, 0xbe,
  0xd0, 0xfc, 0x4f, 0x3e, 0xac, 0x7f, 0x30, 0xbf, 0xaf, 0x9e, 0x11, 0x3f,
  0x94, 0xf7, 0xbb, 0x3e, 0xb3, 0xfb, 0x02, 0xbc, 0x76, 0x5d, 0xa9, 0x3e,
  0x63, 0xcc, 0x54, 0x3d, 0xec, 0xbc, 0xc8, 0x3e, 0x20, 0x67, 0xb1, 0xbe,
  0x7b, 0x11, 0xae, 0x3d, 0xa6, 0x0a, 0x5c, 0xbf, 0x5a, 0xc1, 0xf4, 0xbe,
  0x61, 0x5e, 0x72, 0xbe, 0xff, 0x1e, 0x03, 0xbf, 0x82, 0x1a, 0x89, 0xbe,
  0x79, 0x5d, 0x2e, 0xbe, 0xd2, 0x4b, 0x14, 0xbd, 0x86, 0x5a, 0xb1, 0x3e,
  0x20, 0x85, 0x09, 0x3d, 0xb7, 0xeb, 0xc3, 0x3d, 0x6c, 0x0a, 0xbb, 0x3d,
  0xd5, 0x68, 0xa3, 0x3e, 0x2c, 0x62, 0xb5, 0xbc, 0x3d, 0x15, 0x3f, 0x3e,
  0x06, 0x0f, 0xc0, 0x3d, 0x3c, 0x8b, 0x77, 0xbd, 0x69, 0x3f, 0xc3, 0x3e,
  0xf4, 0xc5, 0x02, 0xbf, 0x2a, 0x14, 0x74, 0xbe, 0x9b, 0xf5, 0x44, 0x3e,
  0x0d, 0xc6, 0x48, 0x3e, 0x2d, 0x1a, 0x17, 0x3d, 0x43, 0xc0, 0x8d, 0xbd,
  0xc2, 0xee, 0x0f, 0xbe, 0x1e, 0x8c, 0xa4, 0xbe, 0x6e, 0x6e, 0x24, 0xbe,
  0xd2, 0xb9, 0x64, 0x3e, 0xfb, 0x0e, 0x2f, 0x3e, 0x4b, 0x41, 0x29, 0xbc,
  0xfb, 0x98, 0xb6, 0x3d, 0xf0, 0x7e, 0x3f, 0xbe, 0x46, 0xea, 0x78, 0xbc,
  0x7c, 0xd4, 0xfe, 0xbe, 0xb6, 0x48, 0x6b, 0xbf, 0x81, 0x06, 0x7d, 0xbe,
  0x01, 0x3d, 0x36, 0x3e, 0x3d, 0xe1, 0x1f, 0x3d, 0x55, 0x8c, 0x23, 0xbe,
  0x38, 0xf8, 0x0e, 0xbe, 0x21, 0x13, 0xb6, 0xbe, 0x55, 0xd5, 0xb4, 0xbe,
  0x9d, 0xb5, 0xac, 0xbe, 0x49, 0x19, 0xa5, 0x3e, 0x05, 0x9a, 0x06, 0x3e,
  0xe0, 0xea, 0x96, 0x3d, 0xa4, 0xd7, 0x0e, 0x3e, 0x6b, 0x39, 0x2e, 0xbe,
  0x4e, 0xbe, 0x5f, 0x3d, 0x26, 0x5b, 0x5d, 0x3d, 0x5d, 0xe3, 0x84, 0xbf,
  0x97, 0x17, 0xd4, 0xbe, 0xc2, 0x31, 0xa6, 0x3e, 0x28, 0xa1, 0xde, 0x3d,
  0x53, 0x09, 0x56, 0xbe, 0x8c, 0x5c, 0xc1, 0x3d, 0xd3, 0x71, 0x14, 0xbe,
  0x0d, 0xa8, 0x1c, 0xbf, 0xe2, 0x5e, 0xe1, 0xbe, 0xf2, 0x6c, 0x14, 0x3e,
  0x76, 0x6f, 0xaf, 0x3e, 0x6b, 0xe9, 0x08, 0xbe, 0x3b, 0xc3, 0x45, 0x3d,
  0xfb, 0x22, 0x91, 0xbe, 0xba, 0x98, 0x2c, 0x3e, 0xa0, 0x62, 0x7a, 0xbe,
  0x08, 0xc0, 0x51, 0xbf, 0x1e, 0x54, 0x17, 0xbf, 0x00, 0x5c, 0xcb, 0x3d,
  0xb0, 0xcd, 0xac, 0x3d, 0x53, 0xff, 0xe0, 0xbe, 0x95, 0x9d, 0x1e, 0xbd,
  0xeb, 0x02, 0x88, 0xbc, 0x74, 0xa8, 0xc7, 0xbe, 0x2a, 0x27, 0xc1, 0xbe,
  0x6b, 0xbe, 0x66, 0x3e, 0x9b, 0x37, 0x95, 0x3e, 0x30, 0x28, 0x01, 0xbe,
  0x11, 0xfc, 0xdc, 0x3d, 0xee, 0x64, 0xdf, 0x3d, 0x38, 0xd9, 0x60, 0x3e,
  0x9b, 0xef, 0xac, 0xbe, 0xf1, 0x96, 0x29, 0xbf, 0x36, 0x53, 0x8d, 0xbe,
  0x81, 0x4d, 0x90, 0x3d, 0x50, 0x53, 0xca, 0x3d, 0xb9, 0xa3, 0xd6, 0xbe,
  0xfd, 0x69, 0x85, 0xbd, 0x8c, 0xd3, 0x20, 0xbe, 0xba, 0xa5, 0x22, 0xbf,
  0xbb, 0x69, 0x2b, 0xbf, 0x0a, 0xc7, 0x58, 0x3e, 0x96, 0xdc, 0x87, 0x3e,
  0x4c, 0xe1, 0xcd, 0xbd, 0x3d, 0xa0, 0x3d, 0x3e, 0xe0, 0xa6, 0x1b, 0xbf,
  0xfc, 0xa1, 0x01, 0x3e, 0x67, 0x2a, 0xc4, 0x3e, 0xc9, 0xac, 0x27, 0xbf,
  0xe1, 0x86, 0xee, 0xbd, 0xa5, 0x2e, 0x8e, 0x3d, 0xc0, 0xd2, 0x30, 0x3d,
  0x8d, 0x7a, 0xbc, 0xbe, 0xee, 0x49, 0x10, 0x3c, 0xdf, 0xca, 0x0c, 0xbf,
  0xf6, 0x2f, 0x30, 0xbf, 0x4c, 0x09, 0x07, 0xbf, 0xc7, 0xab, 0x11, 0x3e,
  0xe4, 0xf3, 0x3e, 0x3e, 0x5b, 0xc6, 0x9f, 0x3d, 0x20, 0xd7, 0x09, 0x3e,
  0x81, 0xee, 0x47, 0xbf, 0xd4, 0xa0, 0x6d, 0x3e, 0x45, 0x18, 0xff, 0xbd,
  0x13, 0x49, 0x4d, 0xbc, 0xb8, 0x40, 0x93, 0xbe, 0xa8, 0x90, 0x48, 0x3e,
  0xe7, 0x47, 0xc9, 0xbd, 0x2c, 0xa9, 0xff, 0xbe, 0xb3, 0x39, 0x83, 0xbd,
  0x50, 0x9c, 0x7a, 0xbe, 0x30, 0x92, 0xb3, 0xbe, 0xc7, 0xfe, 0x9e, 0xbe,
  0x3b, 0x36, 0x73, 0x3e, 0xd7, 0x81, 0x92, 0x3e, 0x3a, 0x46, 0xa3, 0x3d,
  0x72, 0x5b, 0x8a, 0x3e, 0x63, 0xf1, 0x8e, 0xbe, 0x51, 0x05, 0xa0, 0x3e,
  0xb1, 0x50, 0xb7, 0x3c, 0xc0, 0x68, 0x82, 0xbd, 0x5d, 0x27, 0xae, 0xbe,
  0xae, 0x9b, 0x0e, 0x3e, 0x55, 0x91, 0xff, 0x3c, 0x95, 0x04, 0x77, 0xbe,
  0x78, 0x43, 0x48, 0x3c, 0xfb, 0x6c, 0x07, 0xbe, 0x45, 0xcd, 0xb2, 0xbe,
  0x92, 0x19, 0xde, 0xbe, 0xdb, 0xf8, 0x8a, 0x3e, 0xd8, 0x6e, 0x6f, 0x3e,
  0xa0, 0x00, 0xeb, 0x3b, 0x21, 0x33, 0xca, 0x3d, 0xd4, 0x3c, 0x2c, 0xbe,
  0xef, 0xaa, 0x52, 0xbd, 0x26, 0x41, 0xe9, 0xbd, 0x9f, 0xfb, 0x94, 0x3c,
  0xcc, 0x30, 0x2c, 0xbc, 0x33, 0x47, 0x79, 0x3e, 0xb1, 0x8f, 0x16, 0x3e,
  0x70, 0xfb, 0xf8, 0xbe, 0x15, 0x96, 0x36, 0x3c, 0xc5, 0xd7, 0x73, 0xbe,
  0x7e, 0x32, 0xba, 0xbe, 0x42, 0x03, 0xe9, 0xbe, 0x3f, 0x55, 0x90, 0x3e,
  0x45, 0x2b, 0x8f, 0x3e, 0xa2, 0x50, 0x91, 0x3e, 0x6a, 0x48, 0x21, 0x3d,
  0xc9, 0x37, 0x22, 0xbf, 0x38, 0xb3, 0x36, 0xbc, 0x64, 0x6f, 0x0e, 0xbe,
  0x2e, 0x78, 0xa2, 0xbe, 0x25, 0x27, 0x01, 0xbf, 0xcf, 0x49, 0x93, 0x3d,
  0xce, 0xa5, 0x1f, 0x3e, 0x84, 0x3c, 0x96, 0xbe, 0x74, 0xc1, 0xc3, 0xbd,
  0xbb, 0x84, 0x5f, 0xbd, 0x69, 0x05, 0xfb, 0xbe, 0x08, 0x79, 0xe7, 0xbe,
  0xcd, 0x5d, 0xc0, 0x3e, 0x82, 0x6d, 0x8a, 0x3e, 0xab, 0x39, 0x45, 0x3d,
  0xdd, 0xd2, 0x27, 0xbd, 0x29, 0x09, 0x39, 0xbe, 0x97, 0xbb, 0x60, 0xbc,
  0x99, 0x15, 0x24, 0xbe, 0xb2, 0x0e, 0x67, 0xbe, 0xfa, 0x1f, 0x72, 0xbe,
  0x09, 0xb4, 0x5d, 0x3e, 0xc8, 0x04, 0x2b, 0x3e, 0x4c, 0xa7, 0x62, 0xbe,
  0x56, 0x95, 0x6c, 0x3d, 0xfa, 0x5f, 0x15, 0x3d, 0x15, 0xca, 0xb2, 0xbe,
  0x00, 0x42, 0xa0, 0xbe, 0x0e, 0x05, 0xf4, 0x3d, 0xe6, 0x09, 0x1a, 0x3e,
  0xb9, 0x2d, 0xf7, 0x3c, 0xb8, 0xff, 0x0c, 0x3d, 0x23, 0x2e, 0xb2, 0xbe,
  0x97, 0x0e, 0xb4, 0xbc, 0x1c, 0xc1, 0x88, 0xbe, 0x23, 0xd2, 0x2f, 0xbd,
  0xd4, 0xae, 0xa5, 0xbe, 0xee, 0x4a, 0x99, 0x3e, 0x8c, 0xe8, 0x12, 0x3e,
  0x0c, 0x03, 0x17, 0x3d, 0xac, 0xd1, 0xee, 0x3d, 0x3d, 0x97, 0xc3, 0x3e,
  0x85, 0x44, 0xbe, 0xbe, 0x67, 0x92, 0x5a, 0xbe, 0xd9, 0xb6, 0xd5, 0x3d,
  0x93, 0xca, 0x03, 0x3c, 0x61, 0x69, 0x2d, 0xbd, 0x15, 0x4c, 0xb5, 0xbd,
  0x90, 0x4d, 0xd9, 0xbc, 0x36, 0xf7, 0x6a, 0x3e, 0x72, 0x70, 0xf7, 0x3d,
  0xc4, 0x51, 0x8b, 0xbe, 0x8c, 0x97, 0x73, 0xbe, 0x11, 0x62, 0xa1, 0x3e,
  0xcf, 0xd3, 0x41, 0x3e, 0xb1, 0xce, 0xb7, 0x3e, 0xbb, 0x43, 0x77, 0xbe,
  0x97, 0x5c, 0xe8, 0xbe, 0x9c, 0x11, 0xc5, 0xbe, 0xfd, 0x84, 0x1c, 0xbf,
  0xc0, 0x73, 0x7c, 0xbf, 0xc7, 0x10, 0xfe, 0x3e, 0x2d, 0x7b, 0x2f, 0xbe,
  0xed, 0x6e, 0xd5, 0xbe, 0xcb, 0xb3, 0x9e, 0xbe, 0x1d, 0x39, 0x4b, 0xbe,
  0xa5, 0xa6, 0x95, 0xbe, 0x96, 0x93, 0x11, 0x3b, 0xf6, 0xe8, 0x1c, 0x3f,
  0xb4, 0x70, 0x26, 0xbf, 0x81, 0x3b, 0x12, 0xbe, 0x04, 0xed, 0x02, 0xbf,
  0x76, 0xd0, 0x9e, 0xbd, 0x1e, 0x52, 0x80, 0x3e, 0x79, 0x7a, 0x25, 0xbf,
  0x26, 0x1f, 0x1f, 0xbf, 0xb9, 0x36, 0xa3, 0xbf, 0x6c, 0x70, 0xbb, 0x3e,
  0x81, 0x73, 0x86, 0xbd, 0x5a, 0xc1, 0xf6, 0x3e, 0xc0, 0x7b, 0x2c, 0xbd,
  0x61, 0xe3, 0xb9, 0xbe, 0xef, 0xc3, 0x46, 0x3f, 0x5b, 0x1d, 0xfa, 0x3d,
  0x33, 0xcf, 0x7c, 0x3e, 0xc9, 0x30, 0xac, 0xbe, 0x45, 0xf3, 0x8e, 0xbe,
  0xd2, 0x0d, 0x8b, 0xbf, 0xaa, 0x43, 0x47, 0xbe, 0x6b, 0x28, 0xf3, 0x3e,
  0xbe, 0xb3, 0xfd, 0x3d, 0xe5, 0xc1, 0xda, 0xbe, 0x6c, 0xba, 0x99, 0xbf,
  0x18, 0x43, 0x6f, 0x3e, 0x1a, 0x5d, 0xfe, 0xbc, 0xcf, 0x3f, 0x4f, 0x3f,
  0x26, 0x75, 0xe0, 0x3e, 0xd2, 0x25, 0x87, 0xbe, 0xad, 0x27, 0x85, 0x3f,
  0x44, 0x1a, 0x32, 0x3e, 0xdf, 0xa5, 0xb3, 0x3d, 0x93, 0xc2, 0x36, 0xbd,
  0xae, 0x3e, 0xae, 0xbc, 0x7f, 0x2b, 0xa5, 0xbf, 0x6c, 0xa3, 0x5f, 0xbe,
  0xf1, 0x04, 0xa8, 0x3e, 0xf3, 0x2a, 0xa9, 0x3e, 0xbf, 0x5c, 0x1d, 0xbe,
  0x5c, 0x76, 0xa1, 0xbf, 0x09, 0xe9, 0xaf, 0x3e, 0xda, 0x13, 0x9c, 0xbe,
  0x45, 0xac, 0x0f, 0x3f, 0x0f, 0x21, 0xa2, 0x3e, 0x23, 0x7c, 0x2f, 0xbe,
  0x1a, 0xbe, 0x6f, 0x3f, 0xe2, 0x5c, 0xda, 0x3e, 0x85, 0xcf, 0x39, 0x3e,
  0x3f, 0x2c, 0x50, 0xbc, 0xb0, 0xbe, 0xca, 0xbe, 0x5e, 0x63, 0x25, 0xbf,
  0x76, 0x14, 0x4f, 0xbe, 0xea, 0x5c, 0xce, 0x3e, 0xda, 0x41, 0x9a, 0xba,
  0x80, 0x6a, 0x1e, 0x3e, 0xe9, 0xa0, 0x6c, 0xbf, 0xfc, 0xc3, 0x8b, 0x3e,
  0x1f, 0xc0, 0xf2, 0xbe, 0xc1, 0x0d, 0xc9, 0x3e, 0xa9, 0x0b, 0xb8, 0x3e,
  0x2e, 0x4d, 0x06, 0xbf, 0x95, 0x9f, 0x90, 0x3e, 0xf1, 0xbe, 0x00, 0x3d,
  0x7d, 0x52, 0x29, 0x3e, 0xf9, 0x13, 0x80, 0xbd, 0x22, 0x6a, 0x61, 0xbf,
  0xe3, 0x5e, 0x5c, 0xbe, 0x0d, 0xb4, 0xdb, 0xbe, 0x96, 0xb6, 0x86, 0x3e,
  0x92, 0x0e, 0x18, 0x3d, 0x12, 0x52, 0x01, 0xbe, 0x37, 0x16, 0xfa, 0xbe,
  0x61, 0xda, 0x6d, 0x3d, 0x0f, 0x96, 0x45, 0xbf, 0xb0, 0x75, 0x85, 0x3e,
  0x3f, 0x16, 0xea, 0x3e, 0x39, 0x0c, 0x04, 0xbf, 0x93, 0xfb, 0xe6, 0x3e,
  0x02, 0x08, 0x4c, 0x3e, 0x60, 0x65, 0xd8, 0xbe, 0xa4, 0xad, 0xb7, 0xbd,
  0x3a, 0xaf, 0x0b, 0xbf, 0x04, 0x04, 0x2f, 0xbe, 0x8c, 0xf9, 0x0a, 0xbf,
  0x39, 0x25, 0xd2, 0x3e, 0xbd, 0x61, 0xc1, 0xbd, 0xd4, 0xb6, 0x6d, 0xbe,
  0xe0, 0xb5, 0x52, 0xbf, 0xe0, 0xe3, 0xf5, 0xbe, 0x58, 0x95, 0x18, 0xbf,
  0x01, 0x6b, 0x30, 0x3f, 0xc4, 0x55, 0x67, 0x3e, 0x45, 0x7e, 0x19, 0x3c,
  0xfa, 0x89, 0x23, 0x3f, 0x39, 0x62, 0x2e, 0x3f, 0x9a, 0x94, 0xe6, 0xbe,
  0x7a, 0x37, 0x7e, 0xbe, 0x32, 0xf1, 0x54, 0xbf, 0x92, 0x4b, 0x49, 0x3d,
  0x16, 0x4e, 0x02, 0xbf, 0x24, 0xe6, 0x8a, 0x3e, 0x9d, 0x38, 0x99, 0xbc,
  0x72, 0xa8, 0x58, 0x3e, 0x84, 0xba, 0x30, 0xbf, 0x60, 0x51, 0xc5, 0x3e,
  0x79, 0x3e, 0xee, 0xbe, 0xc0, 0xe7, 0xdf, 0x3e, 0x9e, 0x81, 0x17, 0x3e,
  0x10, 0x7f, 0x23, 0x3d, 0x3d, 0x4a, 0xd0, 0x3e, 0x8f, 0xf7, 0xb3, 0x3d,
  0x96, 0x20, 0x46, 0x3f, 0x64, 0x42, 0x72, 0xbf, 0xe5, 0x14, 0x6c, 0xbf,
  0x3f, 0x6a, 0x7f, 0x3e, 0x16, 0x44, 0x95, 0xbe, 0xf5, 0xbf, 0xd2, 0x3e,
  0x5d, 0xf9, 0x64, 0x3d, 0x27, 0x84, 0xf8, 0x3d, 0x00, 0x76, 0x5b, 0xbf,
  0x20, 0x4f, 0x04, 0xbe, 0x58, 0x85, 0x3a, 0xbf, 0x02, 0x0f, 0xf8, 0x3e,
  0x4f, 0x94, 0xb8, 0x3e, 0xc4, 0x4d, 0xa4, 0x3e, 0xea, 0x31, 0x2e, 0x3f,
  0xf3, 0x46, 0x32, 0x3e, 0x7a, 0x60, 0xf2, 0x3d, 0x53, 0xdc, 0x24, 0x3d,
  0xfb, 0x33, 0x51, 0xbf, 0x3e, 0x5f, 0xad, 0x3e, 0xe1, 0x41, 0xaa, 0xbe,
  0xda, 0x09, 0xaf, 0x3e, 0x6b, 0xc5, 0xdb, 0xbc, 0xf7, 0xea, 0x7d, 0x3d,
  0x4f, 0x22, 0x08, 0xbf, 0xc2, 0x8d, 0x1b, 0x3d, 0xcf, 0xa2, 0xa5, 0x3c,
  0xc9, 0xa5, 0xa0, 0x3e, 0x5f, 0x17, 0x9a, 0x3e, 0x7d, 0x28, 0x33, 0x3e,
  0x7d, 0x3c, 0xda, 0x3e, 0x38, 0x70, 0xbd, 0xbe, 0xc5, 0x30, 0xb6, 0xbc,
  0x92, 0x5e, 0x9b, 0xbe, 0x95, 0x20, 0xd4, 0xbe, 0xa7, 0xf3, 0x83, 0xbe,
  0x21, 0xd1, 0x55, 0x3d, 0x18, 0xac, 0x33, 0xbe, 0x8e, 0x81, 0x42, 0xbd,
  0x1b, 0xec, 0x71, 0xbe, 0xf2, 0xf4, 0x46, 0xbf, 0x29, 0x6c, 0x53, 0x3d,
  0x8f, 0x15, 0xc4, 0xbd, 0xa8, 0xec, 0x26, 0x3e, 0x77, 0x2a, 0x2c, 0x3e,
  0x63, 0x24, 0x97, 0xbd, 0xa2, 0x54, 0x9b, 0x3e, 0x5e, 0x12, 0xb2, 0xbe,
  0xb0, 0xd4, 0x31, 0xbe, 0x66, 0x72, 0xac, 0xbf, 0xd4, 0x9a, 0xfe, 0xbe,
  0x8b, 0x81, 0xb1, 0xbe, 0x74, 0xb8, 0x9f, 0x3d, 0xd3, 0x78, 0xe5, 0x3d,
  0xe8, 0x1f, 0xb6, 0xbd, 0xa0, 0x2b, 0x65, 0x3e, 0xbb, 0xfc, 0x15, 0xbf,
  0x42, 0xb4, 0x75, 0x3e, 0x01, 0x1e, 0x3a, 0x3d, 0xbb, 0xea, 0xb4, 0x3c,
  0x35, 0xb3, 0xa4, 0x3c, 0x62, 0xd3, 0x7e, 0x3e, 0xb4, 0x9a, 0x82, 0x3e,
  0x17, 0xe1, 0x60, 0x3e, 0x9e, 0x66, 0x44, 0x3f, 0x33, 0xd1, 0x75, 0xbf,
  0xc4, 0xa6, 0x91, 0xbf, 0x1d, 0x83, 0x03, 0x3e, 0x25, 0x61, 0x37, 0xbe,
  0xf5, 0x30, 0xc0, 0x3d, 0x3d, 0xbd, 0x97, 0x3e, 0x47, 0x88, 0x81, 0x3d,
  0x64, 0x10, 0x3e, 0xbf, 0x77, 0x78, 0xe5, 0xbe, 0x1e, 0xcc, 0x12, 0xbf,
  0xab, 0xb9, 0x45, 0x3e, 0x46, 0x35, 0xd2, 0x3e, 0x5c, 0x09, 0x18, 0xbe,
  0xe0, 0x4e, 0xa9, 0x3e, 0xb9, 0x0b, 0x03, 0x3e, 0x92, 0x5a, 0xbb, 0x3e,
  0x4c, 0x9b, 0xb9, 0xbd, 0x00, 0xbf, 0x56, 0xbf, 0xc4, 0x3d, 0x33, 0xbf,
  0x4a, 0xe0, 0xbe, 0x3c, 0x1b, 0x5a, 0x2f, 0xbd, 0x8e, 0xf5, 0xb3, 0xbe,
  0xf6, 0xd5, 0xe4, 0xbe, 0x54, 0xd0, 0x57, 0xbf, 0xd3, 0x85, 0xd0, 0xbf,
  0x93, 0x23, 0x45, 0x3e, 0x90, 0x7f, 0x67, 0xbf, 0xc7, 0x7a, 0xc4, 0xbe,
  0x00, 0x4b, 0xdd, 0x3e, 0xc3, 0x72, 0xbf, 0x3e, 0xb9, 0x96, 0x60, 0x3e,
  0x41, 0x35, 0x4e, 0x3d, 0x68, 0x8c, 0x06, 0x3d, 0x42, 0x87, 0xc8, 0xbe,
  0x4a, 0x85, 0x20, 0x3e, 0x06, 0xfc, 0x26, 0xbd, 0x5d, 0x35, 0x36, 0xbe,
  0x17, 0xbc, 0x67, 0x3d, 0x49, 0xf4, 0xc6, 0x3c, 0xbe, 0x8c, 0x50, 0xbf,
  0x37, 0x94, 0x84, 0xbf, 0x70, 0x0b, 0x45, 0x3e, 0xbe, 0xdd, 0xd6, 0xbe,
  0x2c, 0x11, 0xba, 0xbe, 0xad, 0x5b, 0xa8, 0x3e, 0x8f, 0x41, 0xde, 0x3e,
  0xde, 0xb3, 0x4c, 0x3e, 0x2a, 0x85, 0x9c, 0x3e, 0x23, 0x31, 0x91, 0x3d,
  0x43, 0x17, 0x13, 0x3e, 0x53, 0x62, 0xaf, 0x3e, 0x19, 0x6f, 0xba, 0xbc,
  0x70, 0xfd, 0x1b, 0xbf, 0x53, 0xdc, 0x51, 0xbd, 0x3a, 0x59, 0xc5, 0xbd,
  0xc0, 0xea, 0x30, 0xbf, 0x31, 0x9e, 0x4e, 0xbf, 0x06, 0x33, 0x96, 0x3e,
  0x22, 0x0e, 0x3b, 0xbf, 0x44, 0x68, 0xfa, 0xbe, 0x43, 0x80, 0x7e, 0x3e,
  0xc6, 0x61, 0xca, 0x3d, 0x36, 0x79, 0x5d, 0x3e, 0x69, 0x12, 0xaf, 0x3e,
  0x26, 0x62, 0xa7, 0x3e, 0xaf, 0x8f, 0xe6, 0x3e, 0x16, 0x6e, 0x9b, 0x3d,
  0x50, 0xdc, 0x28, 0xbe, 0x97, 0xe0, 0xa0, 0xbe, 0x5e, 0xcd, 0x02, 0xbd,
  0xb6, 0x84, 0x62, 0xbe, 0x30, 0xbb, 0x0e, 0xbf, 0x85, 0xf7, 0x3b, 0xbf,
  0x6b, 0xa1, 0x4e, 0x3e, 0x60, 0x67, 0x65, 0xbe, 0x48, 0x3d, 0xfc, 0xbe,
  0xcc, 0xe4, 0x62, 0x3e, 0xe3, 0xe2, 0xa4, 0x3e, 0x30, 0xfe, 0xbf, 0x3e,
  0x24, 0xd0, 0x96, 0x3e, 0x77, 0xa0, 0xfb, 0x3e, 0x06, 0xbb, 0xb6, 0x3e,
  0xe3, 0xe2, 0xb1, 0xbb, 0xa8, 0xcc, 0xa1, 0xbe, 0xaf, 0x06, 0x9c, 0xbf,
  0x7d, 0x1d, 0xb0, 0x3c, 0x05, 0x16, 0x76, 0xbe, 0xc6, 0x88, 0x7b, 0xbe,
  0x2b, 0x20, 0x6d, 0xbf, 0x4f, 0x72, 0x52, 0x3e, 0xe2, 0xd6, 0xa9, 0x3d,
  0x91, 0x7b, 0x80, 0xbf, 0x24, 0x6c, 0xbd, 0xbd, 0x7a, 0xc3, 0x89, 0x3e,
  0xa3, 0x84, 0x45, 0x3f, 0xcd, 0xdb, 0x8b, 0x3e, 0xa8, 0x17, 0x85, 0x3e,
  0xc1, 0x51, 0xdd, 0x3e, 0x9a, 0x31, 0x2b, 0x3e, 0xc9, 0x55, 0xd7, 0x3d,
  0xa1, 0x91, 0x0e, 0xbf, 0x54, 0x1c, 0x25, 0x3e, 0xed, 0xdf, 0x98, 0xbd,
  0x91, 0xd3, 0xc4, 0xbe, 0x6f, 0x85, 0x2a, 0xbf, 0xf1, 0xa6, 0x17, 0x3e,
  0x01, 0x79, 0x75, 0xbe, 0xe3, 0x76, 0xf5, 0xbe, 0x53, 0xda, 0x5a, 0xbe,
  0x95, 0x6f, 0x89, 0xbf, 0x6f, 0x55, 0xa1, 0x3d, 0x56, 0x22, 0xec, 0x3e,
  0x99, 0xb0, 0xeb, 0x3e, 0x74, 0x88, 0xda, 0x3e, 0xa6, 0xcf, 0x1f, 0x3e,
  0xf2, 0x32, 0xbe, 0x3e, 0xae, 0x64, 0xe2, 0xbe, 0x5d, 0x33, 0x63, 0x3e,
  0xcb, 0x12, 0x65, 0x3e, 0x32, 0x61, 0xec, 0xbe, 0xe1, 0x27, 0x06, 0xbf,
  0x20, 0x5b, 0x1f, 0x3e, 0xbd, 0x52, 0x09, 0xbf, 0x43, 0x27, 0x30, 0xbd,
  0x58, 0x05, 0xdc, 0xbe, 0xfb, 0x18, 0xcb, 0xbe, 0x70, 0xd8, 0x9d, 0x3e,
  0x01, 0x12, 0xbc, 0x3e, 0xc3, 0xed, 0x35, 0x3e, 0x19, 0x40, 0xca, 0x3e,
  0xad, 0x5f, 0x09, 0x3e, 0x7d, 0xd0, 0x02, 0x3f, 0xe3, 0x02, 0xf9, 0xbe,
  0x41, 0xe0, 0x0e, 0x3e, 0x8a, 0x6d, 0x38, 0x3d, 0x72, 0x84, 0xe2, 0xbe,
  0xb8, 0xbe, 0x68, 0xbe, 0x0e, 0xd3, 0xee, 0x3d, 0xbd, 0xeb, 0x05, 0xbf,
  0x5d, 0xea, 0x27, 0xbf, 0x5e, 0xb3, 0x78, 0xbf, 0x6f, 0x06, 0x4f, 0xbf,
  0xa9, 0xf1, 0x00, 0xbf, 0xbf, 0x7c, 0x4a, 0xbe, 0x6d, 0x3d, 0x9a, 0x3e,
  0x52, 0xc2, 0xcd, 0x3e, 0xf1, 0x3f, 0x9f, 0xbe, 0x97, 0xbf, 0xb8, 0x3e,
  0x29, 0xe7, 0x4b, 0xbf, 0xb9, 0x3f, 0x50, 0xbe, 0x63, 0x30, 0x89, 0xbd,
  0xe0, 0xa8, 0x0e, 0xbf, 0xee, 0xee, 0x12, 0xbf, 0xae, 0xa1, 0xd3, 0x3d,
  0x26, 0xbf, 0x92, 0xbe, 0x4e, 0x70, 0xfc, 0xbe, 0xed, 0x3b, 0x59, 0xbe,
  0x17, 0x4f, 0xa4, 0xbe, 0x56, 0x70, 0x3d, 0xbf, 0x76, 0xe3, 0x9f, 0xbe,
  0x3b, 0xee, 0x88, 0xbe, 0x46, 0x5d, 0xa6, 0x3e, 0x3b, 0xf5, 0xbf, 0xbe,
  0x1d, 0xa1, 0xba, 0x3e, 0x60, 0x2e, 0xa5, 0xbe, 0x84, 0xa5, 0x09, 0x3e,
  0xc8, 0x11, 0xa0, 0xbb, 0x1b, 0x28, 0x47, 0xbf, 0x7a, 0x18, 0x5e, 0xbf,
  0x43, 0x95, 0xf1, 0x3d, 0xb1, 0x23, 0x03, 0xbe, 0x03, 0xd3, 0xa3, 0xbe,
  0x91, 0x5d, 0x3a, 0xbe, 0xcd, 0x44, 0xee, 0xbe, 0xb6, 0x16, 0xe3, 0xbd,
  0x76, 0x5b, 0x86, 0x3e, 0x85, 0x9b, 0xa9, 0x3e, 0xe6, 0x71, 0xbb, 0x3e,
  0x4a, 0x32, 0xee, 0xbe, 0x5f, 0xf8, 0xad, 0x3d, 0x4f, 0xd7, 0xd4, 0xbe,
  0xdc, 0xd7, 0x9c, 0x3d, 0xf1, 0x71, 0x61, 0xbe, 0x87, 0xd2, 0x7f, 0xbf,
  0x28, 0x2a, 0xa0, 0xbf, 0xeb, 0x0d, 0xf9, 0x3c, 0x7d, 0xaf, 0x86, 0xbe,
  0x3f, 0x01, 0x66, 0xbe, 0x93, 0x45, 0xbd, 0x3c, 0x34, 0x91, 0x0f, 0xbf,
  0x07, 0xdb, 0x1a, 0x3e, 0x81, 0x3a, 0xbd, 0x3e, 0x63, 0x7c, 0x10, 0x3f,
  0xf7, 0xa7, 0xc6, 0x3e, 0x1d, 0xbe, 0x97, 0xbd, 0xe8, 0x01, 0x18, 0x3e,
  0x96, 0x25, 0x86, 0x3c, 0xc0, 0x3f, 0x31, 0x3d, 0x36, 0x29, 0x6e, 0xbd,
  0xe2, 0x8c, 0x43, 0xbe, 0xc6, 0x1b, 0x37, 0xbf, 0xd9, 0xce, 0xfe, 0x3d,
  0x34, 0x83, 0x91, 0x3c, 0x2f, 0xbf, 0x4a, 0xbe, 0x6d, 0x74, 0xfb, 0x3d,
  0xa0, 0xfc, 0x98, 0xbd, 0xa1, 0x39, 0xa7, 0xbe, 0xcd, 0xa5, 0x24, 0xbf,
  0x9f, 0xb4, 0x03, 0x3f, 0xa9, 0x39, 0x66, 0x3e, 0xd8, 0x5d, 0x27, 0x3e,
  0xf8, 0xd3, 0x51, 0x3e, 0xb5, 0x40, 0xb3, 0xbe, 0xae, 0x16, 0xb8, 0xbe,
  0x19, 0xef, 0x2a, 0xbc, 0x7e, 0x4a, 0x12, 0xbe, 0xc1, 0x9e, 0x1a, 0xbe,
  0x33, 0x0f, 0xa1, 0x3e, 0x7a, 0xdb, 0xa3, 0x3e, 0xf9, 0x8f, 0x00, 0xbf,
  0x80, 0xf1, 0x6a, 0xbf, 0xf5, 0x3b, 0x33, 0xbf, 0x5b, 0xb0, 0x33, 0xbe,
  0x5a, 0x49, 0x4b, 0xbf, 0x65, 0x0b, 0x17, 0xbf, 0x1a, 0x4d, 0x54, 0x3b,
  0x46, 0x30, 0xd9, 0x3d, 0x9c, 0x00, 0xd4, 0xbe, 0x0d, 0xd3, 0x34, 0xbe,
  0xcf, 0xda, 0xbb, 0x3e, 0x56, 0x4f, 0x18, 0x3e, 0xae, 0x83, 0xb8, 0x3d,
  0xe4, 0x0f, 0x8a, 0x3e, 0x65, 0x7e, 0xd6, 0xbe, 0xa2, 0x34, 0x86, 0x3e,
  0x0a, 0x31, 0x1a, 0x3d, 0x3e, 0x86, 0x2c, 0xbf, 0x5c, 0xf9, 0x11, 0xbf,
  0x76, 0xee, 0x0f, 0xbf, 0xf0, 0xaf, 0xa7, 0xbc, 0xb6, 0x0a, 0x2d, 0x3e,
  0x87, 0x76, 0x40, 0x3c, 0xba, 0xa8, 0xc7, 0x3e, 0x2b, 0x3e, 0x85, 0xbe,
  0xbf, 0xf7, 0x38, 0xbe, 0x70, 0xf1, 0x63, 0x3e, 0x38, 0x93, 0x26, 0x3e,
  0x66, 0x85, 0x81, 0x3e, 0x75, 0x0a, 0x70, 0x3e, 0xb0, 0x9d, 0x48, 0xbf,
  0x3d, 0xc8, 0x6b, 0x3e, 0xe5, 0xb4, 0xc1, 0x3c, 0x96, 0x3d, 0xb0, 0xbe,
  0x60, 0xc0, 0x67, 0xbe, 0x7f, 0x27, 0x20, 0xbf, 0x80, 0x5f, 0xc0, 0xbe,
  0xd7, 0x0d, 0x19, 0xbe, 0xc6, 0x45, 0x85, 0xbc, 0xb0, 0xba, 0xc2, 0x3e,
  0xfc, 0x3e, 0x9c, 0xbe, 0x96, 0x44, 0xfd, 0xbd, 0x94, 0x8c, 0x74, 0x3e,
  0xc4, 0xe8, 0x86, 0x3e, 0xbc, 0x09, 0x75, 0x3e, 0x79, 0x28, 0x87, 0x3d,
  0x71, 0x54, 0x39, 0xbf, 0x15, 0x8e, 0xc4, 0x3d, 0xaa, 0x94, 0x48, 0xbb,
  0x4c, 0xfb, 0x8d, 0xbe, 0xfa, 0x0f, 0x46, 0xbf, 0x18, 0xbe, 0x48, 0xbf,
  0x02, 0x91, 0xb1, 0xbe, 0xac, 0x19, 0x16, 0x3c, 0x77, 0x1c, 0x9e, 0x3d,
  0x4c, 0x8d, 0xa8, 0x3e, 0x6f, 0x62, 0x0b, 0xbf, 0x9e, 0x9e, 0x62, 0xbd,
  0x32, 0x27, 0xe3, 0x3d, 0xd2, 0x48, 0xb3, 0x3e, 0x85, 0x77, 0xde, 0x3d,
  0x14, 0x82, 0x13, 0x3e, 0x56, 0x94, 0xe3, 0xbe, 0x37, 0x60, 0x90, 0x3d,
  0xe4, 0x68, 0x11, 0x3e, 0xbd, 0xcb, 0xa1, 0xbe, 0x6d, 0xb7, 0xae, 0xbe,
  0x8c, 0x84, 0x0e, 0xbe, 0xe9, 0xef, 0x58, 0xbc, 0x7a, 0xeb, 0xfc, 0xbc,
  0x4c, 0x8e, 0x40, 0x3c, 0x01, 0xed, 0xc1, 0x3e, 0xed, 0xcd, 0x71, 0xbe,
  0x2c, 0x61, 0xd6, 0xbd, 0xd4, 0xe8, 0xfd, 0x3d, 0x37, 0xf0, 0xfc, 0x3d,
  0xfb, 0x02, 0x28, 0x3e, 0xb9, 0xf2, 0x49, 0x3e, 0x0d, 0xfd, 0x15, 0xbd,
  0xa5, 0x3b, 0xc4, 0x3d, 0xfa, 0x74, 0x27, 0x3d, 0x2b, 0x94, 0x41, 0xbe,
  0xd5, 0x52, 0xc8, 0xbd, 0xc8, 0x92, 0x2f, 0xbe, 0x3b, 0x11, 0xfd, 0xbd,
  0xfa, 0x3c, 0xc9, 0x3d, 0xa9, 0x8a, 0x5c, 0x3d, 0xfb, 0x31, 0xf5, 0x3e,
  0xbb, 0xc2, 0x81, 0xbe, 0x7a, 0x3f, 0x2e, 0xbe, 0x63, 0xbe, 0x17, 0xbc,
  0xad, 0x9f, 0x2a, 0x3e, 0x35, 0x1c, 0x1c, 0x3e, 0x2d, 0x3c, 0xef, 0x3d,
  0xb8, 0x4d, 0xad, 0xbe, 0xff, 0x03, 0xac, 0x3c, 0xb1, 0xe7, 0xe3, 0x3d,
  0x45, 0x83, 0x10, 0x3e, 0x69, 0x1e, 0xf7, 0xbc, 0x8d, 0x94, 0x95, 0xbe,
  0xa7, 0x95, 0x2a, 0x3d, 0x70, 0xc5, 0xe0, 0x3a, 0xd6, 0x3c, 0xa8, 0x3d,
  0xf3, 0xb7, 0x87, 0x3e, 0xe6, 0x03, 0x24, 0xbe, 0x9c, 0x49, 0xac, 0x3d,
  0x1d, 0x0c, 0x89, 0xbc, 0xa9, 0x92, 0x7a, 0x3e, 0xb2, 0xfa, 0x44, 0x3e,
  0xc1, 0x6a, 0x3a, 0x3d, 0x99, 0x54, 0x0a, 0xbe, 0x76, 0x52, 0x37, 0x3d,
  0x38, 0xa8, 0x86, 0xbc, 0x25, 0x38, 0x0a, 0x3e, 0xaf, 0x57, 0x91, 0x3d,
  0xa1, 0x0b, 0x17, 0x3d, 0xae, 0x52, 0x92, 0x3d, 0x37, 0xfb, 0xcb, 0xbc,
  0x89, 0x6d, 0x7b, 0xbd, 0x33, 0xdb, 0xbe, 0x3e, 0x9d, 0x7f, 0x65, 0xbe,
  0xb0, 0x37, 0x01, 0xbe, 0x7a, 0x68, 0x0c, 0x3e, 0xde, 0x68, 0x88, 0x3e,
  0x0b, 0xab, 0x1a, 0x3e, 0x2e, 0x0a, 0xbc, 0x3a, 0x2d, 0xb5, 0xd1, 0xbb,
  0x07, 0x12, 0x2f, 0x3e, 0xde, 0x28, 0x10, 0x3e, 0xa9, 0xd5, 0x34, 0x3e,
  0x33, 0x94, 0x43, 0x3c, 0xe8, 0x3d, 0x07, 0x3f, 0x8b, 0xb9, 0xe2, 0xbd,
  0x8f, 0xfa, 0x34, 0x3d, 0x2f, 0xfd, 0x08, 0xbe, 0xc5, 0x5b, 0xab, 0x3e,
  0xd8, 0xbf, 0x8a, 0xbe, 0x8a, 0xdd, 0x4b, 0xbe, 0xe4, 0x22, 0x76, 0x3e,
  0x78, 0x6d, 0xf0, 0x3d, 0x26, 0x61, 0x4d, 0x3e, 0x29, 0x4d, 0x1f, 0x3e,
  0xa4, 0x6a, 0xd6, 0xbd, 0xc4, 0x45, 0x23, 0x3e, 0x37, 0x0f, 0x64, 0x3e,
  0x0e, 0xcd, 0x96, 0xbd, 0x99, 0x69, 0x98, 0xbd, 0x21, 0xc6, 0x34, 0x3f,
  0x6e, 0xdd, 0x62, 0xbe, 0xca, 0x9a, 0x88, 0x3e, 0xa9, 0x6a, 0x0f, 0xbc,
  0x8c, 0x46, 0x82, 0x3e, 0x98, 0xe5, 0x88, 0xbe, 0x24, 0x4a, 0xeb, 0xbd,
  0x54, 0x66, 0x5f, 0x3e, 0xe6, 0x33, 0x65, 0x3e, 0x33, 0x50, 0x80, 0x3e,
  0xad, 0x20, 0x9c, 0x3e, 0x5e, 0x0f, 0xd8, 0xbd, 0xc0, 0xef, 0xca, 0x3e,
  0xf4, 0x79, 0xbb, 0xbd, 0xd9, 0xa9, 0x3c, 0x3d, 0x0a, 0x2a, 0xd1, 0x3d,
  0xb7, 0xa7, 0xe6, 0x3e, 0x30, 0x38, 0xad, 0xbe, 0x24, 0x9e, 0x95, 0x3c,
  0x6a, 0xf4, 0x18, 0x3e, 0x50, 0xf4, 0xed, 0x3e, 0x5a, 0xfd, 0xc8, 0xbd,
  0x36, 0x5c, 0xb9, 0xbd, 0x31, 0x31, 0x49, 0x3e, 0x71, 0x8d, 0x44, 0x3d,
  0x07, 0x38, 0x7d, 0x3e, 0x06, 0x5e, 0x7a, 0x3e, 0x6f, 0xba, 0xfc, 0xbd,
  0xeb, 0x75, 0xd8, 0x3c, 0xc3, 0xc8, 0x2d, 0x3d, 0x3a, 0x4e, 0x4e, 0xbd,
  0x98, 0xfc, 0x0d, 0x3e, 0xd3, 0x8d, 0xa9, 0x3e, 0x8f, 0xe7, 0xa4, 0xbe,
  0x66, 0xe6, 0x0d, 0xbb, 0xbd, 0x73, 0x2b, 0xbd, 0xcc, 0x16, 0x2d, 0x3e,
  0x9e, 0x51, 0x89, 0xbe, 0xfe, 0x5d, 0xf5, 0xbd, 0xf8, 0x37, 0xd1, 0xbd,
  0x0e, 0x00, 0xbb, 0x3d, 0x88, 0xdf, 0x9f, 0x3d, 0x07, 0x8a, 0x5a, 0x3e,
  0x58, 0x70, 0xe5, 0x3d, 0x21, 0x4b, 0x98, 0xbd, 0xbc, 0xdb, 0xa0, 0x3d,
  0xd6, 0x39, 0x7b, 0x3d, 0x67, 0xfb, 0x69, 0x3e, 0x8a, 0x03, 0xec, 0x3e,
  0xfc, 0x1a, 0x23, 0xbe, 0x7a, 0xc5, 0x26, 0xbe, 0xfb, 0x50, 0xd9, 0x3d,
  0xc5, 0x3c, 0x0e, 0xbe, 0x0c, 0x32, 0x1e, 0xbe, 0x0e, 0x70, 0x92, 0x3d,
  0xca, 0xf7, 0x28, 0x3e, 0xa7, 0xd9, 0xa8, 0xbc, 0xcf, 0x76, 0x24, 0x3e,
  0x30, 0x48, 0x83, 0x3e, 0xc0, 0x7b, 0x92, 0xbe, 0xcc, 0x2f, 0x3e, 0xbe,
  0x51, 0x3c, 0xaa, 0x3a, 0xd3, 0x61, 0xcf, 0x3d, 0xac, 0x5d, 0xa6, 0xbd,
  0xba, 0x98, 0xf6, 0x3e, 0xd4, 0x6b, 0xb9, 0x3e, 0x00, 0xf9, 0x0c, 0x3e,
  0xdf, 0xe2, 0x55, 0x3e, 0xcf, 0xa0, 0xcc, 0xbe, 0x4a, 0xf3, 0xff, 0xff,
  0x04, 0x00, 0x00, 0x00, 0x08, 0x00, 0x00, 0x00, 0xff, 0xff, 0xff, 0xff,
  0xd0, 0x00, 0x00, 0x00, 0x5e, 0xf3, 0xff, 0xff, 0x04, 0x00, 0x00, 0x00,
  0x14, 0x00, 0x00, 0x00, 0x5e, 0x0e, 0xad, 0x3e, 0xd1, 0x38, 0x21, 0x3e,
  0x2f, 0xbe, 0x3e, 0xbf, 0x11, 0x40, 0x08, 0x3f, 0x06, 0xe3, 0xd3, 0xbe,
  0x7e, 0xf3, 0xff, 0xff, 0x04, 0x00, 0x00, 0x00, 0x00, 0x06, 0x00, 0x00,
  0xa8, 0xc5, 0x48, 0xbf, 0xb4, 0x4b, 0x15, 0xbc, 0xe4, 0x8e, 0xa3, 0x3e,
  0x41, 0xe7, 0xd9, 0x3d, 0x80, 0xfb, 0x1e, 0xbf, 0x39, 0x11, 0xbe, 0xbe,
  0x1e, 0xf3, 0xb8, 0xbe, 0xc6, 0x1f, 0x6a, 0xbf, 0x57, 0x7e, 0x30, 0xbf,
  0x2d, 0xd2, 0x1d, 0xbd, 0xb0, 0xb5, 0xdc, 0xbe, 0x67, 0x34, 0xbe, 0xbd,
  0x3d, 0x76, 0x8e, 0xbd, 0xb6, 0xa6, 0x37, 0xbf, 0x5d, 0x69, 0x15, 0xbe,
  0x39, 0x58, 0x2a, 0xbd, 0x81, 0x90, 0xca, 0xbd, 0xf9, 0xa2, 0xee, 0xbd,
  0x51, 0xe2, 0x92, 0xbe, 0x2a, 0x60, 0x05, 0xbe, 0x0c, 0xff, 0x36, 0x3d,
  0x86, 0x82, 0xa6, 0xbe, 0xe7, 0x5a, 0xa1, 0x3e, 0x5b, 0x8a, 0x06, 0x3f,
  0xff, 0x18, 0x27, 0xbd, 0x56, 0xa1, 0x8d, 0xbe, 0xec, 0x4e, 0x95, 0xbe,
  0x2b, 0x50, 0x33, 0x3e, 0xd4, 0xec, 0xfb, 0xbc, 0x06, 0x94, 0x19, 0xbf,
  0x90, 0x40, 0x13, 0xbc, 0x41, 0x18, 0x9c, 0xbe, 0xd7, 0xc4, 0xa0, 0xbc,
  0xeb, 0x21, 0x21, 0xbf, 0xf3, 0x5f, 0x98, 0xbd, 0x31, 0x4b, 0x14, 0xbf,
  0xa5, 0x7c, 0xa0, 0x3e, 0x22, 0x94, 0x0c, 0xbf, 0xe1, 0x5d, 0x42, 0x3f,
  0xc1, 0xa7, 0xd3, 0x3e, 0x3e, 0x3a, 0xaf, 0x3d, 0x00, 0x67, 0x0c, 0xbf,
  0x69, 0x70, 0xe6, 0xbc, 0x0f, 0x87, 0x8e, 0xbe, 0xbc, 0x91, 0x37, 0xbe,
  0x46, 0x98, 0xc6, 0xbe, 0x35, 0x31, 0x21, 0xbe, 0x4f, 0x21, 0x2a, 0xbf,
  0x4f, 0xa5, 0x46, 0x3d, 0x05, 0x4d, 0x0a, 0xbf, 0x30, 0x2e, 0x3d, 0x3e,
  0x64, 0xd4, 0x7d, 0xbf, 0x42, 0xcc, 0x98, 0x3e, 0x13, 0xda, 0x91, 0xbe,
  0xbf, 0x7d, 0x04, 0xbe, 0xd3, 0xa6, 0xdc, 0x3e, 0x85, 0xec, 0x7c, 0x3e,
  0x5c, 0x7e, 0x91, 0xbe, 0xc3, 0x1b, 0xb9, 0x3d, 0xee, 0xd1, 0xdd, 0xbe,
  0x37, 0x1b, 0x66, 0x3d, 0x16, 0x61, 0xf1, 0x3b, 0xa8, 0x35, 0xa8, 0xbe,
  0x56, 0xaa, 0xfd, 0xbc, 0xa1, 0x38, 0xb6, 0x3e, 0x7b, 0xe8, 0x84, 0xbe,
  0x7b, 0x99, 0x97, 0x3d, 0x2a, 0x02, 0x1b, 0xbe, 0x7e, 0xc8, 0xca, 0x3e,
  0x17, 0x87, 0x77, 0xbc, 0xdb, 0xbd, 0xcf, 0xbe, 0xb2, 0xe2, 0xb6, 0x3d,
  0x29, 0xc2, 0xbe, 0x3e, 0x80, 0xae, 0x82, 0xbf, 0xe2, 0x7c, 0x0f, 0x3d,
  0x89, 0xd5, 0xc2, 0xbe, 0xeb, 0xd1, 0x9d, 0x3c, 0xb5, 0x18, 0x03, 0xbe,
  0x1d, 0xc2, 0xaf, 0xbd, 0x9b, 0x1a, 0xc9, 0x3e, 0x46, 0x25, 0xc8, 0xbe,
  0xbb, 0x20, 0xb3, 0xbf, 0x52, 0x22, 0x55, 0x3d, 0x30, 0x73, 0xa8, 0xbe,
  0x40, 0x69, 0x06, 0x3e, 0x6d, 0x64, 0xf3, 0xbd, 0xa6, 0x4e, 0x80, 0xbb,
  0xe4, 0xe9, 0xfe, 0xbd, 0x5b, 0xfb, 0xb3, 0x3e, 0xbb, 0xc2, 0x96, 0xbf,
  0xa2, 0x2c, 0x5f, 0xbd, 0x9b, 0x11, 0x36, 0xbe, 0xac, 0x8e, 0x2f, 0x3e,
  0x90, 0x64, 0x56, 0xbd, 0x05, 0x52, 0x04, 0x3e, 0xbb, 0x84, 0x00, 0x3f,
  0x20, 0x65, 0x50, 0xbe, 0x8c, 0x5f, 0x2c, 0x3d, 0x12, 0xa2, 0xa4, 0x3b,
  0xf3, 0xb6, 0x74, 0xbe, 0x59, 0xe5, 0x68, 0xbd, 0x12, 0x7e, 0x01, 0x3f,
  0xc3, 0xc7, 0xe3, 0x3c, 0x2b, 0xca, 0xa9, 0x3e, 0x5a, 0xa3, 0xf5, 0xbd,
  0x88, 0x9e, 0xe0, 0x3b, 0x15, 0xa5, 0x44, 0xbd, 0xae, 0xcc, 0x05, 0xbe,
  0xe2, 0xc9, 0x0e, 0xbe, 0x43, 0x32, 0xdb, 0x3e, 0x66, 0x83, 0xc6, 0x3d,
  0x96, 0xcf, 0xc2, 0xbd, 0x0a, 0x1b, 0x73, 0xbe, 0x58, 0x5d, 0x4d, 0x3d,
  0xd6, 0x9c, 0xc6, 0x3d, 0x63, 0xe3, 0x70, 0xbe, 0x2f, 0xf6, 0x59, 0xbe,
  0x8b, 0x45, 0x1a, 0x3f, 0x5a, 0x6a, 0x17, 0xbe, 0x2b, 0x7c, 0x1a, 0x3e,
  0x22, 0x05, 0x05, 0xbf, 0x83, 0xfe, 0x26, 0xbd, 0x0b, 0x0e, 0x54, 0xbe,
  0x38, 0x75, 0x23, 0x3e, 0x20, 0xdb, 0x46, 0xbe, 0x76, 0xe2, 0x84, 0x3e,
  0x2a, 0x91, 0x98, 0xbe, 0x4f, 0x7a, 0x21, 0xbd, 0x19, 0xef, 0xe4, 0xbe,
  0xde, 0x04, 0xe1, 0x3d, 0xb6, 0xf1, 0x1b, 0xbf, 0x60, 0x3a, 0x05, 0x3e,
  0xd2, 0x4e, 0xbf, 0x3e, 0x03, 0xcd, 0xe6, 0x3e, 0x5e, 0x8b, 0xcf, 0xbe,
  0xb6, 0x76, 0xf3, 0xbd, 0xea, 0x06, 0x49, 0xbf, 0x7c, 0x7d, 0x0a, 0x3f,
  0x8b, 0xfe, 0x1c, 0xbd, 0x69, 0x75, 0xaf, 0x3d, 0x7b, 0xd4, 0xa3, 0xbd,
  0xa2, 0x22, 0xdc, 0x3d, 0xc2, 0x12, 0x86, 0xbe, 0xfa, 0x13, 0xfd, 0xbc,
  0xcd, 0x10, 0xaf, 0x3d, 0x55, 0x62, 0xbb, 0xbd, 0x56, 0x4e, 0xae, 0x3d,
  0x83, 0x74, 0x3a, 0x3e, 0x2e, 0x99, 0xf9, 0xbd, 0xa3, 0x9c, 0x86, 0x3d,
  0x6a, 0x64, 0x19, 0xbe, 0x2c, 0x45, 0x54, 0xbc, 0x3c, 0xcf, 0x04, 0x3d,
  0x00, 0xff, 0x71, 0xbe, 0x21, 0xf7, 0xae, 0x3d, 0xd5, 0xd4, 0xcb, 0xbe,
  0x9e, 0x45, 0x7c, 0xbe, 0x4c, 0x6d, 0x17, 0x3e, 0x78, 0xac, 0xbd, 0xbe,
  0xc4, 0x98, 0xce, 0xbe, 0xc5, 0x39, 0xb9, 0xbe, 0xe4, 0xd9, 0xb9, 0xbd,
  0x3d, 0x78, 0x06, 0xbf, 0xce, 0x86, 0x0e, 0x3f, 0xfe, 0xe6, 0x68, 0xbe,
  0x22, 0x3e, 0x8b, 0x3d, 0x82, 0xec, 0xc2, 0xbd, 0x9c, 0x13, 0xb2, 0xbe,
  0xd3, 0x73, 0x87, 0xbe, 0x87, 0x77, 0x54, 0xbc, 0x75, 0x36, 0x09, 0xbe,
  0xaa, 0xc9, 0x94, 0xbe, 0xfe, 0x8f, 0xb4, 0x3e, 0x80, 0x36, 0x64, 0xbd,
  0xfa, 0xd9, 0xa3, 0x3e, 0x1f, 0xd1, 0xba, 0xbe, 0x6a, 0x86, 0x60, 0xbf,
  0x1d, 0x76, 0x39, 0x3d, 0xab, 0xef, 0x22, 0xbf, 0x83, 0x22, 0x18, 0x3d,
  0xc4, 0x68, 0xb3, 0x3e, 0x1e, 0x1e, 0xa2, 0x3e, 0x20, 0x2e, 0x45, 0x3e,
  0xfd, 0x54, 0xb2, 0xbe, 0x82, 0x91, 0x81, 0xbf, 0x7c, 0x5b, 0x70, 0x3e,
  0xf6, 0xd1, 0x38, 0xbf, 0xaa, 0x8d, 0x50, 0xbe, 0xf2, 0x31, 0xd0, 0x3e,
  0x9f, 0xa9, 0x41, 0x3e, 0x33, 0xbc, 0x07, 0xbd, 0x3c, 0xa4, 0xb3, 0xbe,
  0x38, 0x87, 0xcc, 0x3d, 0xa7, 0x59, 0x40, 0xbf, 0xd6, 0xd5, 0xd3, 0xbd,
  0x14, 0xf0, 0xeb, 0x3c, 0xc3, 0xe6, 0x0a, 0x3f, 0xba, 0x39, 0xd6, 0xbe,
  0x31, 0x17, 0xd6, 0x3e, 0xf9, 0x0a, 0x6b, 0xbe, 0x80, 0xc2, 0x33, 0xbc,
  0x51, 0xf8, 0x8a, 0xbf, 0x00, 0xbb, 0x39, 0xbe, 0xa5, 0xea, 0x5b, 0xbe,
  0x6f, 0xa0, 0x02, 0x3e, 0x9e, 0x20, 0x81, 0xbe, 0x8a, 0x43, 0xa6, 0xbe,
  0xd2, 0xbd, 0xbc, 0x3e, 0xd3, 0xbc, 0x26, 0x3e, 0x66, 0x2d, 0xb3, 0xbf,
  0x5b, 0x65, 0x23, 0xbe, 0x24, 0xe2, 0xf1, 0xbd, 0x68, 0xa4, 0x1c, 0x3c,
  0x68, 0x5c, 0x5e, 0xbc, 0xaa, 0x19, 0x0e, 0x3f, 0x2e, 0xc2, 0xff, 0x3d,
  0xd9, 0xb8, 0x40, 0xbe, 0x09, 0xff, 0x53, 0xbe, 0x40, 0x69, 0x0d, 0xbe,
  0x59, 0xa2, 0xd2, 0xbe, 0xda, 0xcb, 0x89, 0xbd, 0xe3, 0x61, 0x2f, 0x3e,
  0xc3, 0xd4, 0x74, 0xbe, 0x37, 0x70, 0x1e, 0x3e, 0x87, 0x42, 0xa0, 0xbe,
  0x6f, 0xc4, 0xf2, 0xbe, 0xbe, 0xeb, 0x53, 0xbd, 0x25, 0xf3, 0x0b, 0xbd,
  0x4a, 0x8d, 0x4f, 0x3d, 0x0d, 0x94, 0x89, 0xbc, 0x50, 0x75, 0x01, 0xbf,
  0x29, 0x40, 0x36, 0x3d, 0x32, 0x69, 0xa0, 0xbe, 0xa5, 0x40, 0x94, 0xbc,
  0xa2, 0x3d, 0x2a, 0xbe, 0xe2, 0xad, 0xc4, 0x3e, 0x8f, 0xf5, 0x32, 0x3e,
  0x46, 0xf6, 0x8f, 0x3d, 0x4b, 0xa7, 0xe6, 0x3d, 0xda, 0x79, 0xa6, 0x3e,
  0x99, 0x3a, 0x6b, 0xbf, 0x9d, 0x7e, 0xbd, 0xbf, 0x61, 0x35, 0xe7, 0xbe,
  0xeb, 0xd0, 0x70, 0xbf, 0xef, 0x3a, 0xda, 0x3e, 0xbe, 0x61, 0x05, 0xbf,
  0x41, 0x3e, 0xc2, 0x3e, 0x6d, 0x54, 0xf1, 0xbe, 0xd2, 0x29, 0x38, 0xbf,
  0xd2, 0xfe, 0x2d, 0xbf, 0x43, 0xa1, 0x82, 0xbf, 0x2b, 0x5e, 0x2f, 0xbf,
  0x8e, 0x53, 0xa0, 0x3e, 0x5e, 0x49, 0x67, 0xbf, 0x96, 0xb4, 0xbe, 0x3d,
  0x74, 0xd4, 0x26, 0xbf, 0x00, 0x4e, 0x08, 0xbf, 0x7d, 0xec, 0x07, 0xbe,
  0x8f, 0x2e, 0x83, 0xbf, 0x8b, 0x70, 0xd4, 0xbe, 0x82, 0x4d, 0x0b, 0x3e,
  0xb0, 0x0e, 0x37, 0xbe, 0x6e, 0x7a, 0x82, 0x3d, 0x29, 0x03, 0x1e, 0xbf,
  0x34, 0x3a, 0xa4, 0x3b, 0xbc, 0xd5, 0x11, 0xbf, 0x32, 0x31, 0x85, 0xbf,
  0xb2, 0xd8, 0x8d, 0x3e, 0x35, 0x2b, 0xc1, 0x3c, 0xca, 0xf6, 0xb4, 0xbe,
  0x68, 0x2f, 0x17, 0xbf, 0x25, 0xcd, 0x09, 0xbf, 0xcf, 0xf0, 0x1d, 0xbe,
  0x4c, 0xab, 0xa7, 0xbe, 0x7a, 0x44, 0x1a, 0xbf, 0xf7, 0x21, 0x9e, 0x3e,
  0x92, 0x17, 0xab, 0xbe, 0x13, 0x82, 0xce, 0xbe, 0x8c, 0x2f, 0x64, 0xbf,
  0xc5, 0x51, 0x06, 0xbf, 0xdc, 0xfe, 0xf7, 0x3e, 0x74, 0x07, 0xa1, 0xbe,
  0xb8, 0x79, 0xbc, 0xbd, 0x72, 0x43, 0xa7, 0x3e, 0x5f, 0xd1, 0xd8, 0xbe,
  0xe9, 0xe7, 0xbd, 0xbf, 0xeb, 0x12, 0x70, 0xbf, 0x5f, 0x1e, 0xce, 0xbe,
  0x39, 0x77, 0x36, 0xbf, 0x30, 0x4d, 0x7b, 0xb8, 0x65, 0xff, 0x8b, 0xbf,
  0x91, 0xcf, 0xe4, 0xbc, 0xda, 0xf6, 0x40, 0xbf, 0xd5, 0xad, 0x5d, 0xbf,
  0xcb, 0x68, 0x30, 0xbf, 0xd4, 0xe2, 0xeb, 0xbe, 0x1b, 0x23, 0x16, 0xbf,
  0xd4, 0x14, 0x3f, 0x3d, 0x4d, 0x27, 0x28, 0xbf, 0x5c, 0xa5, 0x79, 0x3e,
  0x7e, 0xc9, 0xab, 0xbf, 0x27, 0x3a, 0xf5, 0xbe, 0x10, 0x32, 0x37, 0xbf,
  0x1d, 0x9d, 0xf4, 0xbe, 0x54, 0x70, 0x04, 0x3f, 0xea, 0xca, 0x7b, 0xbc,
  0x22, 0x44, 0x44, 0xbe, 0x13, 0xdc, 0x10, 0xbe, 0xc4, 0x5a, 0x74, 0xbe,
  0x3a, 0x0f, 0x22, 0xbf, 0x20, 0x25, 0xf4, 0xbe, 0x1e, 0xc0, 0xf4, 0xbe,
  0x1f, 0x5f, 0x30, 0xbe, 0xf5, 0x38, 0xf8, 0x3d, 0x99, 0x54, 0x23, 0xbf,
  0x97, 0x81, 0x43, 0x3e, 0x58, 0xc6, 0x74, 0xbf, 0x8e, 0xa4, 0xa3, 0x3e,
  0x5b, 0xef, 0xef, 0xbe, 0x60, 0x68, 0x70, 0xbf, 0xe0, 0xd2, 0x80, 0x3e,
  0x60, 0x49, 0x23, 0xbe, 0x5f, 0x43, 0xc2, 0xbe, 0xfb, 0x0d, 0x6e, 0xbe,
  0x92, 0x36, 0xdb, 0xbe, 0xee, 0x2d, 0xbb, 0x3d, 0x73, 0x2b, 0xa8, 0xbe,
  0xc5, 0x8a, 0x0e, 0xbf, 0x90, 0xe9, 0xe6, 0x3d, 0xa1, 0x0d, 0xee, 0xbd,
  0xce, 0x30, 0xf7, 0x3e, 0x44, 0x9a, 0x35, 0xbe, 0x7a, 0x66, 0xd1, 0x3d,
  0x79, 0x0c, 0x84, 0xbd, 0xae, 0x73, 0x03, 0xbf, 0xfb, 0x4e, 0x1a, 0xbf,
  0x5b, 0x07, 0x74, 0xbe, 0x54, 0x91, 0x5e, 0xbd, 0x2b, 0x6e, 0x13, 0x3f,
  0x3e, 0xb5, 0x12, 0xbe, 0x35, 0xd4, 0x9c, 0xbe, 0xdb, 0xe2, 0x3c, 0xbe,
  0x99, 0x96, 0xad, 0xbe, 0xc7, 0xf8, 0x16, 0xbf, 0xb0, 0x37, 0x37, 0xbe,
  0xf2, 0xd9, 0xe0, 0x3c, 0xaa, 0xdc, 0x31, 0x3d, 0x62, 0x7f, 0x22, 0xbd,
  0x88, 0x6b, 0x01, 0xbf, 0x27, 0x5d, 0x40, 0x3e, 0x0d, 0x10, 0x0f, 0xbf,
  0xfe, 0xeb, 0xf5, 0xbe, 0x36, 0xbb, 0xc9, 0x3e, 0xca, 0x2e, 0x59, 0x3d,
  0x62, 0xc3, 0xe5, 0x3e, 0xb0, 0xd4, 0x02, 0xbd, 0x5e, 0x79, 0xa1, 0xbc,
  0xd8, 0xfa, 0x45, 0x3d, 0x6b, 0x73, 0x31, 0xbe, 0x20, 0x6a, 0xa0, 0xbe,
  0xbe, 0x59, 0x80, 0x3e, 0x07, 0x86, 0xfb, 0xbe, 0x0c, 0x63, 0xb1, 0x3c,
  0x28, 0xb7, 0x95, 0xbe, 0x08, 0x62, 0x95, 0xbe, 0xce, 0xd7, 0xca, 0xbe,
  0xce, 0x1b, 0x86, 0xbf, 0x00, 0x64, 0x72, 0xbe, 0xbf, 0xd6, 0x2c, 0xbd,
  0x6c, 0x9b, 0x18, 0xbf, 0xd0, 0x90, 0x33, 0xbd, 0x78, 0xad, 0x93, 0xbf,
  0x8f, 0x1e, 0x26, 0xbe, 0x88, 0x26, 0x10, 0xbf, 0x70, 0x90, 0x69, 0xbf,
  0x9e, 0x04, 0x26, 0xbe, 0x83, 0xbd, 0x41, 0x3e, 0x74, 0x16, 0xbc, 0xbf,
  0x62, 0x19, 0x75, 0x3e, 0x4c, 0x88, 0x33, 0xbe, 0x08, 0xad, 0x74, 0x3e,
  0x33, 0xf2, 0x9a, 0xbe, 0xfc, 0xe3, 0x72, 0xbe, 0xf6, 0x6f, 0x13, 0xbe,
  0x8a, 0xf9, 0xff, 0xff, 0x04, 0x00, 0x00, 0x00, 0xe0, 0x04, 0x00, 0x00,
  0x50, 0x33, 0xe1, 0x3e, 0x5a, 0xe7, 0x3d, 0x3e, 0xa3, 0x88, 0x14, 0xbe,
  0x34, 0xf6, 0xd6, 0xbd, 0x8b, 0x62, 0x89, 0x3c, 0x8d, 0x94, 0x4e, 0xbe,
  0x81, 0x2b, 0xd7, 0x3c, 0x0e, 0x72, 0xe4, 0xbd, 0xc2, 0x70, 0x16, 0x3e,
  0x12, 0x66, 0x1e, 0x3e, 0x6a, 0x68, 0x60, 0x3e, 0xe8, 0xc2, 0x2b, 0xbe,
  0x7a, 0x43, 0x13, 0x3e, 0x7e, 0xf1, 0x8d, 0x3e, 0x1d, 0xac, 0x0c, 0x3d,
  0xea, 0xfd, 0x2b, 0x3e, 0xf6, 0xd9, 0x02, 0xbe, 0x15, 0x36, 0x26, 0xbb,
  0xc8, 0xe9, 0x06, 0xbe, 0xf5, 0x4a, 0xfc, 0x3c, 0x7a, 0x07, 0xe3, 0x3c,
  0x2a, 0x72, 0x97, 0x3e, 0xdc, 0x69, 0x07, 0xbe, 0x7d, 0x7d, 0x3f, 0x3e,
  0xab, 0x05, 0x21, 0xbe, 0xfb, 0x47, 0x7e, 0x3d, 0xa1, 0xaf, 0xee, 0x3e,
  0xdb, 0x24, 0x1b, 0x3f, 0xd4, 0x56, 0xfe, 0xbe, 0xe6, 0xfd, 0x00, 0x3d,
  0xd0, 0x72, 0x96, 0xbe, 0x42, 0xbe, 0xfd, 0xbd, 0xf4, 0x5d, 0x99, 0xbd,
  0xda, 0x45, 0x36, 0x3e, 0xec, 0x55, 0x42, 0xbe, 0x74, 0x2d, 0x39, 0x3e,
  0x7d, 0x49, 0x5f, 0xbe, 0x68, 0x6a, 0x25, 0x3e, 0xb0, 0x96, 0x48, 0xbe,
  0x5d, 0x3a, 0x8a, 0xbf, 0xb8, 0x55, 0x98, 0xbe, 0x58, 0x6d, 0x9c, 0xbe,
  0x0b, 0xeb, 0xa4, 0xbe, 0xf7, 0xfc, 0x3d, 0xbe, 0x83, 0xaa, 0x2e, 0x3c,
  0x4c, 0x6c, 0xaa, 0x3c, 0x92, 0x00, 0xbc, 0x3d, 0x3e, 0x17, 0x30, 0xbc,
  0x55, 0xe1, 0xd2, 0x3b, 0xbe, 0xb0, 0xa1, 0x3d, 0x7d, 0x1a, 0x7f, 0xbe,
  0xf5, 0x5d, 0xbd, 0x3d, 0x7c, 0x73, 0x99, 0xbf, 0x1a, 0xc9, 0x9a, 0x3e,
  0xcf, 0x90, 0xf6, 0x3d, 0xdb, 0xb7, 0x8f, 0xbe, 0x5e, 0xf0, 0x07, 0x3f,
  0x1c, 0xee, 0x3e, 0x3e, 0xda, 0x6b, 0x8d, 0x3e, 0x5b, 0x93, 0x41, 0x3e,
  0x0c, 0x0d, 0xcb, 0xbd, 0x5d, 0x9c, 0xb3, 0x3e, 0x29, 0x73, 0x2a, 0x3d,
  0x43, 0xa7, 0x73, 0x3e, 0xe9, 0x38, 0x3b, 0xbd, 0x40, 0x03, 0x74, 0xbe,
  0x3f, 0x04, 0x15, 0xbf, 0x10, 0x78, 0x34, 0xbf, 0x15, 0x02, 0xba, 0xbe,
  0x4c, 0x84, 0x26, 0xbc, 0x82, 0x3a, 0x7e, 0xbe, 0xa8, 0x22, 0x5f, 0x3d,
  0xff, 0x67, 0x68, 0xbe, 0xce, 0x96, 0x81, 0xbd, 0x37, 0x6e, 0x34, 0xbe,
  0xd8, 0xee, 0x5a, 0xbe, 0x41, 0xf1, 0x0e, 0xbd, 0xdd, 0x1f, 0x92, 0xbe,
  0xff, 0x59, 0xd9, 0x3e, 0x37, 0x9a, 0x0f, 0x3e, 0x7b, 0xd8, 0x9e, 0xbe,
  0x5a, 0x63, 0x54, 0xbe, 0x4a, 0x93, 0x5d, 0xbe, 0xf7, 0x02, 0x8b, 0xbc,
  0x9e, 0x3c, 0xe8, 0x3d, 0xee, 0x71, 0xc5, 0xbd, 0x25, 0x58, 0x66, 0xbd,
  0xc5, 0x82, 0x98, 0xbd, 0x13, 0xb6, 0x59, 0xbe, 0x83, 0x6f, 0xe0, 0xbe,
  0x72, 0x28, 0x51, 0xbe, 0x8c, 0xfe, 0xc3, 0xbd, 0x43, 0x5a, 0xfd, 0xbd,
  0x14, 0x53, 0x4a, 0xbe, 0x3a, 0xf6, 0x59, 0xbe, 0x7f, 0x09, 0x0d, 0xbe,
  0x70, 0xbd, 0xf0, 0x3e, 0xe3, 0x08, 0x12, 0x3f, 0x80, 0x9d, 0x15, 0x3d,
  0x3a, 0xfc, 0x38, 0xbe, 0x20, 0x2f, 0x89, 0xbe, 0xbb, 0xaa, 0x8f, 0xbe,
  0xf5, 0x8f, 0x96, 0x3d, 0x24, 0xf9, 0xba, 0xbd, 0x91, 0x36, 0x74, 0xbe,
  0x4d, 0x03, 0x40, 0x3d, 0x86, 0x01, 0x02, 0xbe, 0xf8, 0x30, 0xd3, 0xbe,
  0x21, 0x47, 0xb5, 0x3e, 0x4d, 0x9e, 0x79, 0x3e, 0xc6, 0x30, 0xa3, 0x3e,
  0x17, 0xa5, 0xeb, 0x3c, 0xc4, 0x28, 0xa6, 0xbd, 0x7f, 0xb1, 0x5b, 0xbe,
  0xfa, 0x4c, 0xff, 0x3c, 0xde, 0x67, 0x6c, 0xbe, 0x7b, 0x7a, 0xe5, 0x3d,
  0x41, 0x9a, 0xd1, 0x3e, 0x3d, 0x5c, 0x0a, 0x3f, 0xd8, 0x10, 0x13, 0xbd,
  0x91, 0x16, 0xb8, 0xbc, 0x67, 0x48, 0xf3, 0xbd, 0x3b, 0xab, 0xf7, 0xbd,
  0x03, 0x18, 0xed, 0xbd, 0x9e, 0x7a, 0x12, 0x3e, 0x61, 0x4c, 0xd7, 0x3d,
  0xae, 0x05, 0x53, 0x3e, 0xbd, 0xd5, 0xdd, 0x3d, 0xbe, 0x39, 0x9f, 0x3e,
  0x54, 0x72, 0x9b, 0x3d, 0xb5, 0x58, 0x8d, 0xbe, 0xf8, 0xad, 0xf8, 0x3e,
  0xf5, 0xe7, 0xbf, 0xbd, 0xe0, 0xc8, 0x41, 0x3e, 0x51, 0xc6, 0xb9, 0x3e,
  0xf1, 0xa6, 0x22, 0x3e, 0x3f, 0x31, 0x37, 0xbd, 0xfd, 0xd3, 0x07, 0xbd,
  0x7e, 0x4f, 0x70, 0xbe, 0xe6, 0x88, 0x80, 0xbc, 0x23, 0xf4, 0x28, 0x3d,
  0x3f, 0x22, 0x15, 0x3e, 0x69, 0x59, 0xbb, 0x3d, 0x2d, 0xd3, 0x4e, 0xbf,
  0x74, 0x39, 0x32, 0xbf, 0x82, 0x23, 0xbb, 0x3d, 0x30, 0x95, 0xed, 0x3d,
  0x17, 0x9f, 0x43, 0x3d, 0xe0, 0xbf, 0xc9, 0x3e, 0x4b, 0x77, 0x75, 0x3e,
  0x7d, 0xf6, 0xb0, 0x3e, 0x60, 0xdf, 0x6f, 0x3e, 0x80, 0x10, 0x0d, 0x3e,
  0x42, 0x36, 0x38, 0xbd, 0x64, 0xff, 0x39, 0x3e, 0xd3, 0x1c, 0xf1, 0x3d,
  0x90, 0x92, 0x05, 0x3f, 0xfa, 0x9e, 0x43, 0x3d, 0x44, 0xcc, 0x14, 0x3e,
  0xf3, 0x3d, 0xe8, 0x3d, 0x4e, 0x8d, 0xdc, 0xbd, 0x23, 0x7d, 0x8a, 0xbe,
  0xc6, 0x59, 0x34, 0x3e, 0x59, 0x51, 0x45, 0xbd, 0xa4, 0x04, 0x71, 0x3c,
  0x90, 0x87, 0x20, 0xbe, 0x72, 0xcb, 0x1c, 0xbe, 0x51, 0xa4, 0xd2, 0xbd,
  0xec, 0xb9, 0x7f, 0xbc, 0x1e, 0xbe, 0xdf, 0x3d, 0x60, 0x74, 0x7d, 0x3e,
  0x2b, 0x19, 0x8b, 0x3e, 0xd8, 0xc6, 0x8b, 0x3e, 0x0d, 0x29, 0x4b, 0x3e,
  0x89, 0xbd, 0xd9, 0xbe, 0x45, 0x5e, 0xa4, 0x3e, 0x1b, 0xa7, 0x2e, 0xbe,
  0x58, 0x85, 0x5f, 0xbd, 0x9f, 0x0e, 0xa7, 0xbe, 0x86, 0x5a, 0x00, 0xbe,
  0xc4, 0x24, 0xe3, 0x3d, 0xe0, 0x87, 0x9f, 0x3d, 0x18, 0x3f, 0xa5, 0x3b,
  0xbe, 0x8b, 0x1d, 0x3e, 0x2a, 0x87, 0x19, 0x3d, 0x5b, 0x6f, 0xa9, 0x3e,
  0x8d, 0x83, 0xcf, 0xbd, 0xdf, 0xe3, 0x8b, 0xbe, 0xef, 0x5f, 0x75, 0x3d,
  0x9d, 0x45, 0x1c, 0xbe, 0xa8, 0x1d, 0x53, 0xbe, 0x22, 0x66, 0xd3, 0xbd,
  0x5a, 0x76, 0x47, 0xbe, 0xab, 0xdd, 0x7e, 0x3e, 0x9c, 0x6b, 0xac, 0xbe,
  0x2d, 0x40, 0x2e, 0xbf, 0xfb, 0xdc, 0x9a, 0x3d, 0x13, 0x0d, 0x28, 0x3d,
  0x55, 0xbe, 0x92, 0x3e, 0x1a, 0x19, 0xf0, 0x3d, 0xd7, 0x99, 0x2d, 0x3d,
  0xfd, 0x18, 0xd5, 0xbd, 0x32, 0x9d, 0x0c, 0x3e, 0x34, 0xf3, 0x75, 0xbc,
  0x80, 0x93, 0xb8, 0x3d, 0x54, 0x82, 0x03, 0x3e, 0xa2, 0xdb, 0xf0, 0xbd,
  0x09, 0xdb, 0x85, 0x3e, 0x64, 0xd8, 0x84, 0xbf, 0x9f, 0xf5, 0x0c, 0xbf,
  0x3c, 0xed, 0xb3, 0xbe, 0x8d, 0x71, 0x1a, 0xbe, 0xac, 0x58, 0x82, 0xbe,
  0xc8, 0x96, 0xa4, 0xbe, 0xb6, 0x23, 0x48, 0xbe, 0xc6, 0x65, 0xa0, 0xbe,
  0x5d, 0xca, 0x72, 0xbe, 0x9a, 0x6d, 0x8e, 0xbd, 0x52, 0x8f, 0x6f, 0xbe,
  0x33, 0x9c, 0x0b, 0xbe, 0x8d, 0x0a, 0x29, 0xbf, 0x29, 0x91, 0x60, 0x3f,
  0x75, 0xc4, 0x67, 0x3e, 0xa6, 0xd7, 0x09, 0x3f, 0xe0, 0x03, 0x90, 0x3d,
  0xb6, 0x7e, 0x88, 0x3e, 0x00, 0x1c, 0xd2, 0x3e, 0x30, 0xfe, 0xd0, 0x3d,
  0x2f, 0x9a, 0x70, 0x3d, 0xc1, 0x5e, 0x3c, 0x3e, 0x6d, 0x63, 0xed, 0x3d,
  0xc7, 0x34, 0x72, 0x3e, 0x60, 0x46, 0x22, 0x3e, 0x30, 0x06, 0xb5, 0x3d,
  0xd6, 0x01, 0xa3, 0xbe, 0x24, 0x29, 0x75, 0xbb, 0x2a, 0x3d, 0x6b, 0x3e,
  0xd1, 0x50, 0x2a, 0x3f, 0x1a, 0x42, 0x53, 0xbc, 0x2d, 0xd5, 0xdc, 0x3d,
  0x45, 0x69, 0x8a, 0x3e, 0x54, 0xfa, 0xc4, 0xbe, 0xbe, 0xc3, 0xe9, 0xbe,
  0x64, 0xba, 0xc7, 0xbe, 0x7c, 0x40, 0xcd, 0xbe, 0x8f, 0x65, 0xd9, 0x3d,
  0xf7, 0x32, 0xf3, 0x3d, 0xd6, 0x91, 0xce, 0xbd, 0xf2, 0x7e, 0xb2, 0x3b,
  0xd9, 0xce, 0x27, 0xbe, 0x94, 0x16, 0x8d, 0x3e, 0xe3, 0x80, 0xee, 0xbd,
  0x1d, 0xc0, 0x80, 0x3b, 0x8d, 0x77, 0xc1, 0x3e, 0xc6, 0x87, 0xb2, 0xbe,
  0xd7, 0x82, 0x00, 0xbf, 0xf4, 0x2b, 0x80, 0xbe, 0xea, 0xc0, 0x84, 0xbe,
  0x85, 0xf0, 0xa6, 0x3e, 0x95, 0xb9, 0x24, 0xbe, 0x8b, 0x13, 0xc3, 0xbe,
  0xe8, 0xce, 0x28, 0xbe, 0x6d, 0x6f, 0x88, 0xbe, 0xe5, 0x03, 0x95, 0x3d,
  0x11, 0x74, 0x3b, 0xbe, 0x2c, 0x03, 0x83, 0x3e, 0xfe, 0x38, 0xfc, 0xbd,
  0x1d, 0x75, 0x6b, 0xbe, 0x29, 0x50, 0x86, 0xbe, 0x3b, 0xaf, 0x5b, 0x3e,
  0x88, 0x41, 0x9e, 0x3e, 0xf9, 0x07, 0x2d, 0x3a, 0x5d, 0x04, 0x9c, 0xbe,
  0x1c, 0x53, 0xf3, 0xbc, 0xc4, 0x38, 0x00, 0x3f, 0xfa, 0x3a, 0x56, 0x3e,
  0x80, 0xd3, 0xeb, 0x3d, 0xf8, 0x6a, 0xa9, 0x3d, 0x33, 0xe2, 0x68, 0xbc,
  0xd8, 0xcf, 0xb8, 0x3c, 0x07, 0xac, 0xc2, 0xbc, 0xd9, 0xb8, 0x8a, 0xbe,
  0x02, 0x0c, 0x8e, 0xbc, 0x38, 0x55, 0xaa, 0xbe, 0xe3, 0x16, 0x98, 0x3e,
  0xfa, 0x5b, 0x93, 0x3e, 0xed, 0xfd, 0x69, 0xbc, 0x9d, 0x03, 0x0f, 0x3f,
  0xf8, 0x1f, 0xc2, 0x3e, 0x71, 0xff, 0x04, 0x3c, 0xab, 0x5e, 0x14, 0xbe,
  0xab, 0xbe, 0x48, 0x3e, 0xfb, 0xb7, 0xda, 0x3d, 0xa6, 0x4a, 0x95, 0xbe,
  0x59, 0x45, 0x9b, 0xbe, 0x43, 0x50, 0xee, 0xbd, 0xc6, 0x0b, 0xa1, 0xbc,
  0x9a, 0x99, 0x5c, 0x3e, 0xa6, 0xea, 0x41, 0x3e, 0x8c, 0xb9, 0x6a, 0x3e,
  0xc4, 0xf2, 0xfb, 0x3e, 0x30, 0x70, 0x82, 0x3c, 0x80, 0xb2, 0xd6, 0x3d,
  0x73, 0xd9, 0x9e, 0xbe, 0xaa, 0x8c, 0x8e, 0x3e, 0x03, 0x9e, 0x98, 0xbe,
  0x2c, 0x15, 0x82, 0xbd, 0x71, 0x00, 0xc3, 0xbe, 0xb4, 0x0f, 0xab, 0xbd,
  0xf4, 0xfa, 0xa6, 0x3e, 0xe1, 0x7f, 0x5a, 0xbe, 0x58, 0x9e, 0xc3, 0x3d,
  0x76, 0xfe, 0xff, 0xff, 0x04, 0x00, 0x00, 0x00, 0x10, 0x00, 0x00, 0x00,
  0x01, 0x00, 0x00, 0x00, 0x19, 0x00, 0x00, 0x00, 0x01, 0x00, 0x00, 0x00,
  0x10, 0x00, 0x00, 0x00, 0x92, 0xfe, 0xff, 0xff, 0x04, 0x00, 0x00, 0x00,
  0x10, 0x00, 0x00, 0x00, 0x01, 0x00, 0x00, 0x00, 0x01, 0x00, 0x00, 0x00,
  0x19, 0x00, 0x00, 0x00, 0x08, 0x00, 0x00, 0x00, 0xae, 0xfe, 0xff, 0xff,
  0x04, 0x00, 0x00, 0x00, 0x10, 0x00, 0x00, 0x00, 0x01, 0x00, 0x00, 0x00,
  0x32, 0x00, 0x00, 0x00, 0x01, 0x00, 0x00, 0x00, 0x08, 0x00, 0x00, 0x00,
  0xca, 0xfe, 0xff, 0xff, 0x04, 0x00, 0x00, 0x00, 0x10, 0x00, 0x00, 0x00,
  0x01, 0x00, 0x00, 0x00, 0x01, 0x00, 0x00, 0x00, 0x32, 0x00, 0x00, 0x00,
  0x0d, 0x00, 0x00, 0x00, 0xe6, 0xfe, 0xff, 0xff, 0x04, 0x00, 0x00, 0x00,
  0x40, 0x00, 0x00, 0x00, 0xf2, 0x51, 0xbf, 0x3d, 0xd4, 0xa8, 0x52, 0xbf,
  0xc6, 0x2f, 0x06, 0xbf, 0x71, 0xf4, 0x8e, 0xbe, 0x68, 0x6a, 0xc7, 0xbe,
  0x70, 0x31, 0x80, 0xbf, 0xfb, 0x4b, 0x0c, 0x3d, 0x35, 0xed, 0x30, 0xbf,
  0x26, 0x42, 0x37, 0xbf, 0x14, 0xed, 0x82, 0x3e, 0x14, 0x9d, 0x18, 0x3b,
  0x19, 0x86, 0xfc, 0xbe, 0x5a, 0x27, 0x26, 0x3c, 0x4b, 0xfd, 0xcd, 0xbe,
  0xc2, 0xc7, 0xba, 0xbe, 0xfb, 0x77, 0xbf, 0x3e, 0x32, 0xff, 0xff, 0xff,
  0x04, 0x00, 0x00, 0x00, 0x20, 0x00, 0x00, 0x00, 0xcb, 0x58, 0xe4, 0xbf,
  0xbb, 0x55, 0x45, 0xbf, 0x85, 0x56, 0xf7, 0xbf, 0x66, 0x0f, 0x72, 0xbf,
  0x88, 0x25, 0x02, 0xc0, 0x37, 0x17, 0x85, 0xbf, 0xf0, 0x3b, 0x01, 0xc0,
  0xd1, 0x12, 0x09, 0xc0, 0x64, 0xf4, 0xff, 0xff, 0x68, 0xf4, 0xff, 0xff,
  0x0f, 0x00, 0x00, 0x00, 0x4d, 0x4c, 0x49, 0x52, 0x20, 0x43, 0x6f, 0x6e,
  0x76, 0x65, 0x72, 0x74, 0x65, 0x64, 0x2e, 0x00, 0x01, 0x00, 0x00, 0x00,
  0x14, 0x00, 0x00, 0x00, 0x00, 0x00, 0x0e, 0x00, 0x18, 0x00, 0x14, 0x00,
  0x10, 0x00, 0x0c, 0x00, 0x08, 0x00, 0x04, 0x00, 0x0e, 0x00, 0x00, 0x00,
  0x14, 0x00, 0x00, 0x00, 0x1c, 0x00, 0x00, 0x00, 0x84, 0x02, 0x00, 0x00,
  0x88, 0x02, 0x00, 0x00, 0x8c, 0x02, 0x00, 0x00, 0x04, 0x00, 0x00, 0x00,
  0x6d, 0x61, 0x69, 0x6e, 0x00, 0x00, 0x00, 0x00, 0x0b, 0x00, 0x00, 0x00,
  0x48, 0x02, 0x00, 0x00, 0xec, 0x01, 0x00, 0x00, 0xb8, 0x01, 0x00, 0x00,
  0x68, 0x01, 0x00, 0x00, 0x44, 0x01, 0x00, 0x00, 0x00, 0x01, 0x00, 0x00,
  0xdc, 0x00, 0x00, 0x00, 0x9c, 0x00, 0x00, 0x00, 0x78, 0x00, 0x00, 0x00,
  0x40, 0x00, 0x00, 0x00, 0x04, 0x00, 0x00, 0x00, 0x4a, 0xfe, 0xff, 0xff,
  0x1c, 0x00, 0x00, 0x00, 0x00, 0x00, 0x00, 0x09, 0x1c, 0x00, 0x00, 0x00,
  0x20, 0x00, 0x00, 0x00, 0x04, 0x00, 0x00, 0x00, 0x00, 0x00, 0x06, 0x00,
  0x08, 0x00, 0x04, 0x00, 0x06, 0x00, 0x00, 0x00, 0x00, 0x00, 0x80, 0x3f,
  0x01, 0x00, 0x00, 0x00, 0x16, 0x00, 0x00, 0x00, 0x01, 0x00, 0x00, 0x00,
  0x15, 0x00, 0x00, 0x00, 0x82, 0xfe, 0xff, 0xff, 0x14, 0x00, 0x00, 0x00,
  0x00, 0x00, 0x00, 0x08, 0x10, 0x00, 0x00, 0x00, 0x14, 0x00, 0x00, 0x00,
  0x03, 0x00, 0x00, 0x00, 0x3c, 0xf5, 0xff, 0xff, 0x01, 0x00, 0x00, 0x00,
  0x15, 0x00, 0x00, 0x00, 0x03, 0x00, 0x00, 0x00, 0x14, 0x00, 0x00, 0x00,
  0x0b, 0x00, 0x00, 0x00, 0x09, 0x00, 0x00, 0x00, 0x5a, 0xfe, 0xff, 0xff,
  0x08, 0x00, 0x00, 0x00, 0x0c, 0x00, 0x00, 0x00, 0x01, 0x00, 0x00, 0x00,
  0x14, 0x00, 0x00, 0x00, 0x02, 0x00, 0x00, 0x00, 0x13, 0x00, 0x00, 0x00,
  0x0a, 0x00, 0x00, 0x00, 0xd6, 0xfe, 0xff, 0xff, 0x14, 0x00, 0x00, 0x00,
  0x00, 0x00, 0x00, 0x05, 0x20, 0x00, 0x00, 0x00, 0x24, 0x00, 0x00, 0x00,
  0x02, 0x00, 0x00, 0x00, 0x42, 0xff, 0xff, 0xff, 0x02, 0x00, 0x00, 0x00,
  0x01, 0x00, 0x00, 0x00, 0x02, 0x00, 0x00, 0x00, 0x01, 0x00, 0x00, 0x00,
  0x01, 0x00, 0x00, 0x00, 0x13, 0x00, 0x00, 0x00, 0x01, 0x00, 0x00, 0x00,
  0x12, 0x00, 0x00, 0x00, 0xb6, 0xfe, 0xff, 0xff, 0x08, 0x00, 0x00, 0x00,
  0x0c, 0x00, 0x00, 0x00, 0x01, 0x00, 0x00, 0x00, 0x12, 0x00, 0x00, 0x00,
  0x02, 0x00, 0x00, 0x00, 0x11, 0x00, 0x00, 0x00, 0x06, 0x00, 0x00, 0x00,
  0x32, 0xff, 0xff, 0xff, 0x14, 0x00, 0x00, 0x00, 0x00, 0x00, 0x00, 0x01,
  0x1c, 0x00, 0x00, 0x00, 0x20, 0x00, 0x00, 0x00, 0x01, 0x00, 0x00, 0x00,
  0x24, 0xff, 0xff, 0xff, 0x00, 0x00, 0x00, 0x01, 0x01, 0x00, 0x00, 0x00,
  0x01, 0x00, 0x00, 0x00, 0x01, 0x00, 0x00, 0x00, 0x11, 0x00, 0x00, 0x00,
  0x03, 0x00, 0x00, 0x00, 0x10, 0x00, 0x00, 0x00, 0x08, 0x00, 0x00, 0x00,
  0x02, 0x00, 0x00, 0x00, 0x16, 0xff, 0xff, 0xff, 0x08, 0x00, 0x00, 0x00,
  0x0c, 0x00, 0x00, 0x00, 0x01, 0x00, 0x00, 0x00, 0x10, 0x00, 0x00, 0x00,
  0x02, 0x00, 0x00, 0x00, 0x0f, 0x00, 0x00, 0x00, 0x05, 0x00, 0x00, 0x00,
  0x92, 0xff, 0xff, 0xff, 0x24, 0x00, 0x00, 0x00, 0x00, 0x00, 0x00, 0x05,
  0x30, 0x00, 0x00, 0x00, 0x34, 0x00, 0x00, 0x00, 0x02, 0x00, 0x00, 0x00,
  0x00, 0x00, 0x0e, 0x00, 0x14, 0x00, 0x00, 0x00, 0x10, 0x00, 0x0c, 0x00,
  0x08, 0x00, 0x04, 0x00, 0x0e, 0x00, 0x00, 0x00, 0x02, 0x00, 0x00, 0x00,
  0x01, 0x00, 0x00, 0x00, 0x02, 0x00, 0x00, 0x00, 0x01, 0x00, 0x00, 0x00,
  0x01, 0x00, 0x00, 0x00, 0x0f, 0x00, 0x00, 0x00, 0x01, 0x00, 0x00, 0x00,
  0x0e, 0x00, 0x00, 0x00, 0x82, 0xff, 0xff, 0xff, 0x08, 0x00, 0x00, 0x00,
  0x0c, 0x00, 0x00, 0x00, 0x01, 0x00, 0x00, 0x00, 0x0e, 0x00, 0x00, 0x00,
  0x02, 0x00, 0x00, 0x00, 0x0d, 0x00, 0x00, 0x00, 0x04, 0x00, 0x00, 0x00,
  0x00, 0x00, 0x0e, 0x00, 0x18, 0x00, 0x14, 0x00, 0x10, 0x00, 0x0c, 0x00,
  0x0b, 0x00, 0x04, 0x00, 0x0e, 0x00, 0x00, 0x00, 0x20, 0x00, 0x00, 0x00,
  0x00, 0x00, 0x00, 0x01, 0x28, 0x00, 0x00, 0x00, 0x2c, 0x00, 0x00, 0x00,
  0x01, 0x00, 0x00, 0x00, 0x0c, 0x00, 0x10, 0x00, 0x00, 0x00, 0x0c, 0x00,
  0x08, 0x00, 0x07, 0x00, 0x0c, 0x00, 0x00, 0x00, 0x00, 0x00, 0x00, 0x01,
  0x01, 0x00, 0x00, 0x00, 0x01, 0x00, 0x00, 0x00, 0x01, 0x00, 0x00, 0x00,
  0x0d, 0x00, 0x00, 0x00, 0x03, 0x00, 0x00, 0x00, 0x0c, 0x00, 0x00, 0x00,
  0x07, 0x00, 0x00, 0x00, 0x01, 0x00, 0x00, 0x00, 0x00, 0x00, 0x0a, 0x00,
  0x0c, 0x00, 0x00, 0x00, 0x08, 0x00, 0x04, 0x00, 0x0a, 0x00, 0x00, 0x00,
  0x08, 0x00, 0x00, 0x00, 0x0c, 0x00, 0x00, 0x00, 0x01, 0x00, 0x00, 0x00,
  0x0c, 0x00, 0x00, 0x00, 0x02, 0x00, 0x00, 0x00, 0x00, 0x00, 0x00, 0x00,
  0x03, 0x00, 0x00, 0x00, 0x01, 0x00, 0x00, 0x00, 0x16, 0x00, 0x00, 0x00,
  0x01, 0x00, 0x00, 0x00, 0x00, 0x00, 0x00, 0x00, 0x17, 0x00, 0x00, 0x00,
  0xac, 0x08, 0x00, 0x00, 0x3c, 0x08, 0x00, 0x00, 0xe4, 0x07, 0x00, 0x00,
  0x90, 0x07, 0x00, 0x00, 0x24, 0x07, 0x00, 0x00, 0xcc, 0x06, 0x00, 0x00,
  0x74, 0x06, 0x00, 0x00, 0x20, 0x06, 0x00, 0x00, 0xcc, 0x05, 0x00, 0x00,
  0x74, 0x05, 0x00, 0x00, 0x28, 0x05, 0x00, 0x00, 0xdc, 0x04, 0x00, 0x00,
  0x7c, 0x04, 0x00, 0x00, 0xb0, 0x03, 0x00, 0x00, 0x50, 0x03, 0x00, 0x00,
  0xf4, 0x02, 0x00, 0x00, 0x94, 0x02, 0x00, 0x00, 0xbc, 0x01, 0x00, 0x00,
  0x5c, 0x01, 0x00, 0x00, 0x00, 0x01, 0x00, 0x00, 0xb4, 0x00, 0x00, 0x00,
  0x50, 0x00, 0x00, 0x00, 0x04, 0x00, 0x00, 0x00, 0xc6, 0xf7, 0xff, 0xff,
  0x00, 0x00, 0x00, 0x01, 0x10, 0x00, 0x00, 0x00, 0x10, 0x00, 0x00, 0x00,
  0x17, 0x00, 0x00, 0x00, 0x28, 0x00, 0x00, 0x00, 0xb0, 0xf7, 0xff, 0xff,
  0x19, 0x00, 0x00, 0x00, 0x53, 0x74, 0x61, 0x74, 0x65, 0x66, 0x75, 0x6c,
  0x50, 0x61, 0x72, 0x74, 0x69, 0x74, 0x69, 0x6f, 0x6e, 0x65, 0x64, 0x43,
  0x61, 0x6c, 0x6c, 0x3a, 0x30, 0x00, 0x00, 0x00, 0x02, 0x00, 0x00, 0x00,
  0x01, 0x00, 0x00, 0x00, 0x05, 0x00, 0x00, 0x00, 0x0e, 0xf8, 0xff, 0xff,
  0x00, 0x00, 0x00, 0x01, 0x10, 0x00, 0x00, 0x00, 0x10, 0x00, 0x00, 0x00,
  0x16, 0x00, 0x00, 0x00, 0x40, 0x00, 0x00, 0x00, 0xf8, 0xf7, 0xff, 0xff,
  0x32, 0x00, 0x00, 0x00, 0x73, 0x65, 0x71, 0x75, 0x65, 0x6e, 0x74, 0x69,
  0x61, 0x6c, 0x2f, 0x79, 0x5f, 0x70, 0x72, 0x65, 0x64, 0x2f, 0x4d, 0x61,
  0x74, 0x4d, 0x75, 0x6c, 0x3b, 0x73, 0x65, 0x71, 0x75, 0x65, 0x6e, 0x74,
  0x69, 0x61, 0x6c, 0x2f, 0x79, 0x5f, 0x70, 0x72, 0x65, 0x64, 0x2f, 0x42,
  0x69, 0x61, 0x73, 0x41, 0x64, 0x64, 0x00, 0x00, 0x02, 0x00, 0x00, 0x00,
  0x01, 0x00, 0x00, 0x00, 0x05, 0x00, 0x00, 0x00, 0x6e, 0xf8, 0xff, 0xff,
  0x00, 0x00, 0x00, 0x01, 0x10, 0x00, 0x00, 0x00, 0x10, 0x00, 0x00, 0x00,
  0x15, 0x00, 0x00, 0x00, 0x28, 0x00, 0x00, 0x00, 0x58, 0xf8, 0xff, 0xff,
  0x1a, 0x00, 0x00, 0x00, 0x73, 0x65, 0x71, 0x75, 0x65, 0x6e, 0x74, 0x69,
  0x61, 0x6c, 0x2f, 0x66, 0x6c, 0x61, 0x74, 0x74, 0x65, 0x6e, 0x2f, 0x52,
  0x65, 0x73, 0x68, 0x61, 0x70, 0x65, 0x00, 0x00, 0x02, 0x00, 0x00, 0x00,
  0x01, 0x00, 0x00, 0x00, 0xd0, 0x00, 0x00, 0x00, 0xb6, 0xf8, 0xff, 0xff,
  0x00, 0x00, 0x00, 0x01, 0x10, 0x00, 0x00, 0x00, 0x10, 0x00, 0x00, 0x00,
  0x14, 0x00, 0x00, 0x00, 0x30, 0x00, 0x00, 0x00, 0xa0, 0xf8, 0xff, 0xff,
  0x22, 0x00, 0x00, 0x00, 0x73, 0x65, 0x71, 0x75, 0x65, 0x6e, 0x74, 0x69,
  0x61, 0x6c, 0x2f, 0x6d, 0x61, 0x78, 0x5f, 0x70, 0x6f, 0x6f, 0x6c, 0x69,
  0x6e, 0x67, 0x31, 0x64, 0x5f, 0x31, 0x2f, 0x4d, 0x61, 0x78, 0x50, 0x6f,
  0x6f, 0x6c, 0x00, 0x00, 0x04, 0x00, 0x00, 0x00, 0x01, 0x00, 0x00, 0x00,
  0x0d, 0x00, 0x00, 0x00, 0x01, 0x00, 0x00, 0x00, 0x10, 0x00, 0x00, 0x00,
  0x0e, 0xf9, 0xff, 0xff, 0x00, 0x00, 0x00, 0x01, 0x10, 0x00, 0x00, 0x00,
  0x10, 0x00, 0x00, 0x00, 0x13, 0x00, 0x00, 0x00, 0x34, 0x00, 0x00, 0x00,
  0xf8, 0xf8, 0xff, 0xff, 0x26, 0x00, 0x00, 0x00, 0x73, 0x65, 0x71, 0x75,
  0x65, 0x6e, 0x74, 0x69, 0x61, 0x6c, 0x2f, 0x6d, 0x61, 0x78, 0x5f, 0x70,
  0x6f, 0x6f, 0x6c, 0x69, 0x6e, 0x67, 0x31, 0x64, 0x5f, 0x31, 0x2f, 0x45,
  0x78, 0x70, 0x61, 0x6e, 0x64, 0x44, 0x69, 0x6d, 0x73, 0x31, 0x00, 0x00,
  0x04, 0x00, 0x00, 0x00, 0x01, 0x00, 0x00, 0x00, 0x19, 0x00, 0x00, 0x00,
  0x01, 0x00, 0x00, 0x00, 0x10, 0x00, 0x00, 0x00, 0x6a, 0xf9, 0xff, 0xff,
  0x00, 0x00, 0x00, 0x01, 0x10, 0x00, 0x00, 0x00, 0x10, 0x00, 0x00, 0x00,
  0x12, 0x00, 0x00, 0x00, 0xac, 0x00, 0x00, 0x00, 0x54, 0xf9, 0xff, 0xff,
  0x9d, 0x00, 0x00, 0x00, 0x73, 0x65, 0x71, 0x75, 0x65, 0x6e, 0x74, 0x69,
  0x61, 0x6c, 0x2f, 0x63, 0x6f, 0x6e, 0x76, 0x31, 0x64, 0x5f, 0x31, 0x2f,
  0x52, 0x65, 0x6c, 0x75, 0x3b, 0x73, 0x65, 0x71, 0x75, 0x65, 0x6e, 0x74,
  0x69, 0x61, 0x6c, 0x2f, 0x63, 0x6f, 0x6e, 0x76, 0x31, 0x64, 0x5f, 0x31,
  0x2f, 0x42, 0x69, 0x61, 0x73, 0x41, 0x64, 0x64, 0x3b, 0x73, 0x65, 0x71,
  0x75, 0x65, 0x6e, 0x74, 0x69, 0x61, 0x6c, 0x2f, 0x63, 0x6f, 0x6e, 0x76,
  0x31, 0x64, 0x5f, 0x31, 0x2f, 0x43, 0x6f, 0x6e, 0x76, 0x31, 0x44, 0x2f,
  0x53, 0x71, 0x75, 0x65, 0x65, 0x7a, 0x65, 0x3b, 0x73, 0x65, 0x71, 0x75,
  0x65, 0x6e, 0x74, 0x69, 0x61, 0x6c, 0x2f, 0x63, 0x6f, 0x6e, 0x76, 0x31,
  0x64, 0x5f, 0x31, 0x2f, 0x42, 0x69, 0x61, 0x73, 0x41, 0x64, 0x64, 0x2f,
  0x52, 0x65, 0x61, 0x64, 0x56, 0x61, 0x72, 0x69, 0x61, 0x62, 0x6c, 0x65,
  0x4f, 0x70, 0x3b, 0x73, 0x65, 0x71, 0x75, 0x65, 0x6e, 0x74, 0x69, 0x61,
  0x6c, 0x2f, 0x63, 0x6f, 0x6e, 0x76, 0x31, 0x64, 0x5f, 0x31, 0x2f, 0x43,
  0x6f, 0x6e, 0x76, 0x31, 0x44, 0x00, 0x00, 0x00, 0x04, 0x00, 0x00, 0x00,
  0x01, 0x00, 0x00, 0x00, 0x01, 0x00, 0x00, 0x00, 0x19, 0x00, 0x00, 0x00,
  0x10, 0x00, 0x00, 0x00, 0x3e, 0xfa, 0xff, 0xff, 0x00, 0x00, 0x00, 0x01,
  0x10, 0x00, 0x00, 0x00, 0x10, 0x00, 0x00, 0x00, 0x11, 0x00, 0x00, 0x00,
  0x34, 0x00, 0x00, 0x00, 0x28, 0xfa, 0xff, 0xff, 0x26, 0x00, 0x00, 0x00,
  0x73, 0x65, 0x71, 0x75, 0x65, 0x6e, 0x74, 0x69, 0x61, 0x6c, 0x2f, 0x63,
  0x6f, 0x6e, 0x76, 0x31, 0x64, 0x5f, 0x31, 0x2f, 0x43, 0x6f, 0x6e, 0x76,
  0x31, 0x44, 0x2f, 0x45, 0x78, 0x70, 0x61, 0x6e, 0x64, 0x44, 0x69, 0x6d,
  0x73, 0x31, 0x00, 0x00, 0x04, 0x00, 0x00, 0x00, 0x01, 0x00, 0x00, 0x00,
  0x01, 0x00, 0x00, 0x00, 0x19, 0x00, 0x00, 0x00, 0x08, 0x00, 0x00, 0x00,
  0x9a, 0xfa, 0xff, 0xff, 0x00, 0x00, 0x00, 0x01, 0x10, 0x00, 0x00, 0x00,
  0x10, 0x00, 0x00, 0x00, 0x10, 0x00, 0x00, 0x00, 0x30, 0x00, 0x00, 0x00,
  0x84, 0xfa, 0xff, 0xff, 0x20, 0x00, 0x00, 0x00, 0x73, 0x65, 0x71, 0x75,
  0x65, 0x6e, 0x74, 0x69, 0x61, 0x6c, 0x2f, 0x6d, 0x61, 0x78, 0x5f, 0x70,
  0x6f, 0x6f, 0x6c, 0x69, 0x6e, 0x67, 0x31, 0x64, 0x2f, 0x4d, 0x61, 0x78,
  0x50, 0x6f, 0x6f, 0x6c, 0x00, 0x00, 0x00, 0x00, 0x04, 0x00, 0x00, 0x00,
  0x01, 0x00, 0x00, 0x00, 0x19, 0x00, 0x00, 0x00, 0x01, 0x00, 0x00, 0x00,
  0x08, 0x00, 0x00, 0x00, 0xf2, 0xfa, 0xff, 0xff, 0x00, 0x00, 0x00, 0x01,
  0x10, 0x00, 0x00, 0x00, 0x10, 0x00, 0x00, 0x00, 0x0f, 0x00, 0x00, 0x00,
  0x34, 0x00, 0x00, 0x00, 0xdc, 0xfa, 0xff, 0xff, 0x24, 0x00, 0x00, 0x00,
  0x73, 0x65, 0x71, 0x75, 0x65, 0x6e, 0x74, 0x69, 0x61, 0x6c, 0x2f, 0x6d,
  0x61, 0x78, 0x5f, 0x70, 0x6f, 0x6f, 0x6c, 0x69, 0x6e, 0x67, 0x31, 0x64,
  0x2f, 0x45, 0x78, 0x70, 0x61, 0x6e, 0x64, 0x44, 0x69, 0x6d, 0x73, 0x31,
  0x00, 0x00, 0x00, 0x00, 0x04, 0x00, 0x00, 0x00, 0x01, 0x00, 0x00, 0x00,
  0x32, 0x00, 0x00, 0x00, 0x01, 0x00, 0x00, 0x00, 0x08, 0x00, 0x00, 0x00,
  0x4e, 0xfb, 0xff, 0xff, 0x00, 0x00, 0x00, 0x01, 0x10, 0x00, 0x00, 0x00,
  0x10, 0x00, 0x00, 0x00, 0x0e, 0x00, 0x00, 0x00, 0xa0, 0x00, 0x00, 0x00,
  0x38, 0xfb, 0xff, 0xff, 0x93, 0x00, 0x00, 0x00, 0x73, 0x65, 0x71, 0x75,
  0x65, 0x6e, 0x74, 0x69, 0x61, 0x6c, 0x2f, 0x63, 0x6f, 0x6e, 0x76, 0x31,
  0x64, 0x2f, 0x52, 0x65, 0x6c, 0x75, 0x3b, 0x73, 0x65, 0x71, 0x75, 0x65,
  0x6e, 0x74, 0x69, 0x61, 0x6c, 0x2f, 0x63, 0x6f, 0x6e, 0x76, 0x31, 0x64,
  0x2f, 0x42, 0x69, 0x61, 0x73, 0x41, 0x64, 0x64, 0x3b, 0x73, 0x65, 0x71,
  0x75, 0x65, 0x6e, 0x74, 0x69, 0x61, 0x6c, 0x2f, 0x63, 0x6f, 0x6e, 0x76,
  0x31, 0x64, 0x2f, 0x43, 0x6f, 0x6e, 0x76, 0x31, 0x44, 0x2f, 0x53, 0x71,
  0x75, 0x65, 0x65, 0x7a, 0x65, 0x3b, 0x73, 0x65, 0x71, 0x75, 0x65, 0x6e,
  0x74, 0x69, 0x61, 0x6c, 0x2f, 0x63, 0x6f, 0x6e, 0x76, 0x31, 0x64, 0x2f,
  0x42, 0x69, 0x61, 0x73, 0x41, 0x64, 0x64, 0x2f, 0x52, 0x65, 0x61, 0x64,
  0x56, 0x61, 0x72, 0x69, 0x61, 0x62, 0x6c, 0x65, 0x4f, 0x70, 0x3b, 0x73,
  0x65, 0x71, 0x75, 0x65, 0x6e, 0x74, 0x69, 0x61, 0x6c, 0x2f, 0x63, 0x6f,
  0x6e, 0x76, 0x31, 0x64, 0x2f, 0x43, 0x6f, 0x6e, 0x76, 0x31, 0x44, 0x00,
  0x04, 0x00, 0x00, 0x00, 0x01, 0x00, 0x00, 0x00, 0x01, 0x00, 0x00, 0x00,
  0x32, 0x00, 0x00, 0x00, 0x08, 0x00, 0x00, 0x00, 0x16, 0xfc, 0xff, 0xff,
  0x00, 0x00, 0x00, 0x01, 0x10, 0x00, 0x00, 0x00, 0x10, 0x00, 0x00, 0x00,
  0x0d, 0x00, 0x00, 0x00, 0x34, 0x00, 0x00, 0x00, 0x00, 0xfc, 0xff, 0xff,
  0x24, 0x00, 0x00, 0x00, 0x73, 0x65, 0x71, 0x75, 0x65, 0x6e, 0x74, 0x69,
  0x61, 0x6c, 0x2f, 0x63, 0x6f, 0x6e, 0x76, 0x31, 0x64, 0x2f, 0x43, 0x6f,
  0x6e, 0x76, 0x31, 0x44, 0x2f, 0x45, 0x78, 0x70, 0x61, 0x6e, 0x64, 0x44,
  0x69, 0x6d, 0x73, 0x31, 0x00, 0x00, 0x00, 0x00, 0x04, 0x00, 0x00, 0x00,
  0x01, 0x00, 0x00, 0x00, 0x01, 0x00, 0x00, 0x00, 0x32, 0x00, 0x00, 0x00,
  0x0d, 0x00, 0x00, 0x00, 0x72, 0xfc, 0xff, 0xff, 0x00, 0x00, 0x00, 0x01,
  0x10, 0x00, 0x00, 0x00, 0x10, 0x00, 0x00, 0x00, 0x0c, 0x00, 0x00, 0x00,
  0x28, 0x00, 0x00, 0x00, 0x5c, 0xfc, 0xff, 0xff, 0x18, 0x00, 0x00, 0x00,
  0x73, 0x65, 0x71, 0x75, 0x65, 0x6e, 0x74, 0x69, 0x61, 0x6c, 0x2f, 0x79,
  0x5f, 0x70, 0x72, 0x65, 0x64, 0x2f, 0x4d, 0x61, 0x74, 0x4d, 0x75, 0x6c,
  0x00, 0x00, 0x00, 0x00, 0x02, 0x00, 0x00, 0x00, 0x05, 0x00, 0x00, 0x00,
  0xd0, 0x00, 0x00, 0x00, 0xca, 0xfd, 0xff, 0xff, 0x00, 0x00, 0x00, 0x01,
  0x14, 0x00, 0x00, 0x00, 0x14, 0x00, 0x00, 0x00, 0x0b, 0x00, 0x00, 0x00,
  0x00, 0x00, 0x00, 0x02, 0x28, 0x00, 0x00, 0x00, 0xa8, 0xfc, 0xff, 0xff,
  0x18, 0x00, 0x00, 0x00, 0x73, 0x65, 0x71, 0x75, 0x65, 0x6e, 0x74, 0x69,
  0x61, 0x6c, 0x2f, 0x66, 0x6c, 0x61, 0x74, 0x74, 0x65, 0x6e, 0x2f, 0x43,
  0x6f, 0x6e, 0x73, 0x74, 0x00, 0x00, 0x00, 0x00, 0x01, 0x00, 0x00, 0x00,
  0x02, 0x00, 0x00, 0x00, 0x02, 0xfd, 0xff, 0xff, 0x00, 0x00, 0x00, 0x01,
  0x10, 0x00, 0x00, 0x00, 0x10, 0x00, 0x00, 0x00, 0x0a, 0x00, 0x00, 0x00,
  0x38, 0x00, 0x00, 0x00, 0xec, 0xfc, 0xff, 0xff, 0x28, 0x00, 0x00, 0x00,
  0x73, 0x65, 0x71, 0x75, 0x65, 0x6e, 0x74, 0x69, 0x61, 0x6c, 0x2f, 0x79,
  0x5f, 0x70, 0x72, 0x65, 0x64, 0x2f, 0x42, 0x69, 0x61, 0x73, 0x41, 0x64,
  0x64, 0x2f, 0x52, 0x65, 0x61, 0x64, 0x56, 0x61, 0x72, 0x69, 0x61, 0x62,
  0x6c, 0x65, 0x4f, 0x70, 0x00, 0x00, 0x00, 0x00, 0x01, 0x00, 0x00, 0x00,
  0x05, 0x00, 0x00, 0x00, 0x56, 0xfd, 0xff, 0xff, 0x00, 0x00, 0x00, 0x01,
  0x10, 0x00, 0x00, 0x00, 0x10, 0x00, 0x00, 0x00, 0x09, 0x00, 0x00, 0x00,
  0x28, 0x00, 0x00, 0x00, 0x40, 0xfd, 0xff, 0xff, 0x1a, 0x00, 0x00, 0x00,
  0x73, 0x65, 0x71, 0x75, 0x65, 0x6e, 0x74, 0x69, 0x61, 0x6c, 0x2f, 0x63,
  0x6f, 0x6e, 0x76, 0x31, 0x64, 0x5f, 0x31, 0x2f, 0x43, 0x6f, 0x6e, 0x76,
  0x31, 0x44, 0x00, 0x00, 0x04, 0x00, 0x00, 0x00, 0x10, 0x00, 0x00, 0x00,
  0x01, 0x00, 0x00, 0x00, 0x03, 0x00, 0x00, 0x00, 0x08, 0x00, 0x00, 0x00,
  0xa6, 0xfd, 0xff, 0xff, 0x00, 0x00, 0x00, 0x01, 0x10, 0x00, 0x00, 0x00,
  0x10, 0x00, 0x00, 0x00, 0x08, 0x00, 0x00, 0x00, 0x28, 0x00, 0x00, 0x00,
  0x90, 0xfd, 0xff, 0xff, 0x18, 0x00, 0x00, 0x00, 0x73, 0x65, 0x71, 0x75,
  0x65, 0x6e, 0x74, 0x69, 0x61, 0x6c, 0x2f, 0x63, 0x6f, 0x6e, 0x76, 0x31,
  0x64, 0x2f, 0x43, 0x6f, 0x6e, 0x76, 0x31, 0x44, 0x00, 0x00, 0x00, 0x00,
  0x04, 0x00, 0x00, 0x00, 0x08, 0x00, 0x00, 0x00, 0x01, 0x00, 0x00, 0x00,
  0x03, 0x00, 0x00, 0x00, 0x0d, 0x00, 0x00, 0x00, 0x06, 0xff, 0xff, 0xff,
  0x00, 0x00, 0x00, 0x01, 0x14, 0x00, 0x00, 0x00, 0x14, 0x00, 0x00, 0x00,
  0x07, 0x00, 0x00, 0x00, 0x00, 0x00, 0x00, 0x02, 0x34, 0x00, 0x00, 0x00,
  0xe4, 0xfd, 0xff, 0xff, 0x25, 0x00, 0x00, 0x00, 0x73, 0x65, 0x71, 0x75,
  0x65, 0x6e, 0x74, 0x69, 0x61, 0x6c, 0x2f, 0x6d, 0x61, 0x78, 0x5f, 0x70,
  0x6f, 0x6f, 0x6c, 0x69, 0x6e, 0x67, 0x31, 0x64, 0x5f, 0x31, 0x2f, 0x45,
  0x78, 0x70, 0x61, 0x6e, 0x64, 0x44, 0x69, 0x6d, 0x73, 0x00, 0x00, 0x00,
  0x01, 0x00, 0x00, 0x00, 0x04, 0x00, 0x00, 0x00, 0x5a, 0xff, 0xff, 0xff,
  0x00, 0x00, 0x00, 0x01, 0x14, 0x00, 0x00, 0x00, 0x14, 0x00, 0x00, 0x00,
  0x06, 0x00, 0x00, 0x00, 0x00, 0x00, 0x00, 0x02, 0x34, 0x00, 0x00, 0x00,
  0x38, 0xfe, 0xff, 0xff, 0x25, 0x00, 0x00, 0x00, 0x73, 0x65, 0x71, 0x75,
  0x65, 0x6e, 0x74, 0x69, 0x61, 0x6c, 0x2f, 0x63, 0x6f, 0x6e, 0x76, 0x31,
  0x64, 0x5f, 0x31, 0x2f, 0x43, 0x6f, 0x6e, 0x76, 0x31, 0x44, 0x2f, 0x45,
  0x78, 0x70, 0x61, 0x6e, 0x64, 0x44, 0x69, 0x6d, 0x73, 0x00, 0x00, 0x00,
  0x01, 0x00, 0x00, 0x00, 0x04, 0x00, 0x00, 0x00, 0xae, 0xff, 0xff, 0xff,
  0x00, 0x00, 0x00, 0x01, 0x14, 0x00, 0x00, 0x00, 0x14, 0x00, 0x00, 0x00,
  0x05, 0x00, 0x00, 0x00, 0x00, 0x00, 0x00, 0x02, 0x30, 0x00, 0x00, 0x00,
  0x8c, 0xfe, 0xff, 0xff, 0x23, 0x00, 0x00, 0x00, 0x73, 0x65, 0x71, 0x75,
  0x65, 0x6e, 0x74, 0x69, 0x61, 0x6c, 0x2f, 0x6d, 0x61, 0x78, 0x5f, 0x70,
  0x6f, 0x6f, 0x6c, 0x69, 0x6e, 0x67, 0x31, 0x64, 0x2f, 0x45, 0x78, 0x70,
  0x61, 0x6e, 0x64, 0x44, 0x69, 0x6d, 0x73, 0x00, 0x01, 0x00, 0x00, 0x00,
  0x04, 0x00, 0x00, 0x00, 0x00, 0x00, 0x16, 0x00, 0x1c, 0x00, 0x18, 0x00,
  0x17, 0x00, 0x10, 0x00, 0x0c, 0x00, 0x08, 0x00, 0x00, 0x00, 0x00, 0x00,
  0x00, 0x00, 0x07, 0x00, 0x16, 0x00, 0x00, 0x00, 0x00, 0x00, 0x00, 0x01,
  0x14, 0x00, 0x00, 0x00, 0x14, 0x00, 0x00, 0x00, 0x04, 0x00, 0x00, 0x00,
  0x00, 0x00, 0x00, 0x02, 0x30, 0x00, 0x00, 0x00, 0xf4, 0xfe, 0xff, 0xff,
  0x23, 0x00, 0x00, 0x00, 0x73, 0x65, 0x71, 0x75, 0x65, 0x6e, 0x74, 0x69,
  0x61, 0x6c, 0x2f, 0x63, 0x6f, 0x6e, 0x76, 0x31, 0x64, 0x2f, 0x43, 0x6f,
  0x6e, 0x76, 0x31, 0x44, 0x2f, 0x45, 0x78, 0x70, 0x61, 0x6e, 0x64, 0x44,
  0x69, 0x6d, 0x73, 0x00, 0x01, 0x00, 0x00, 0x00, 0x04, 0x00, 0x00, 0x00,
  0x56, 0xff, 0xff, 0xff, 0x00, 0x00, 0x00, 0x01, 0x10, 0x00, 0x00, 0x00,
  0x10, 0x00, 0x00, 0x00, 0x03, 0x00, 0x00, 0x00, 0x38, 0x00, 0x00, 0x00,
  0x40, 0xff, 0xff, 0xff, 0x2a, 0x00, 0x00, 0x00, 0x73, 0x65, 0x71, 0x75,
  0x65, 0x6e, 0x74, 0x69, 0x61, 0x6c, 0x2f, 0x63, 0x6f, 0x6e, 0x76, 0x31,
  0x64, 0x5f, 0x31, 0x2f, 0x42, 0x69, 0x61, 0x73, 0x41, 0x64, 0x64, 0x2f,
  0x52, 0x65, 0x61, 0x64, 0x56, 0x61, 0x72, 0x69, 0x61, 0x62, 0x6c, 0x65,
  0x4f, 0x70, 0x00, 0x00, 0x01, 0x00, 0x00, 0x00, 0x10, 0x00, 0x00, 0x00,
  0xaa, 0xff, 0xff, 0xff, 0x00, 0x00, 0x00, 0x01, 0x10, 0x00, 0x00, 0x00,
  0x10, 0x00, 0x00, 0x00, 0x02, 0x00, 0x00, 0x00, 0x38, 0x00, 0x00, 0x00,
  0x94, 0xff, 0xff, 0xff, 0x28, 0x00, 0x00, 0x00, 0x73, 0x65, 0x71, 0x75,
  0x65, 0x6e, 0x74, 0x69, 0x61, 0x6c, 0x2f, 0x63, 0x6f, 0x6e, 0x76, 0x31,
  0x64, 0x2f, 0x42, 0x69, 0x61, 0x73, 0x41, 0x64, 0x64, 0x2f, 0x52, 0x65,
  0x61, 0x64, 0x56, 0x61, 0x72, 0x69, 0x61, 0x62, 0x6c, 0x65, 0x4f, 0x70,
  0x00, 0x00, 0x00, 0x00, 0x01, 0x00, 0x00, 0x00, 0x08, 0x00, 0x00, 0x00,
  0x00, 0x00, 0x16, 0x00, 0x18, 0x00, 0x14, 0x00, 0x00, 0x00, 0x10, 0x00,
  0x0c, 0x00, 0x08, 0x00, 0x00, 0x00, 0x00, 0x00, 0x00, 0x00, 0x07, 0x00,
  0x16, 0x00, 0x00, 0x00, 0x00, 0x00, 0x00, 0x01, 0x14, 0x00, 0x00, 0x00,
  0x14, 0x00, 0x00, 0x00, 0x01, 0x00, 0x00, 0x00, 0x24, 0x00, 0x00, 0x00,
  0x04, 0x00, 0x04, 0x00, 0x04, 0x00, 0x00, 0x00, 0x13, 0x00, 0x00, 0x00,
  0x73, 0x65, 0x72, 0x76, 0x69, 0x6e, 0x67, 0x5f, 0x64, 0x65, 0x66, 0x61,
  0x75, 0x6c, 0x74, 0x5f, 0x78, 0x3a, 0x30, 0x00, 0x02, 0x00, 0x00, 0x00,
  0x01, 0x00, 0x00, 0x00, 0x8a, 0x02, 0x00, 0x00, 0x05, 0x00, 0x00, 0x00,
  0x50, 0x00, 0x00, 0x00, 0x34, 0x00, 0x00, 0x00, 0x24, 0x00, 0x00, 0x00,
  0x14, 0x00, 0x00, 0x00, 0x04, 0x00, 0x00, 0x00, 0xd0, 0xff, 0xff, 0xff,
  0x19, 0x00, 0x00, 0x00, 0x00, 0x00, 0x00, 0x19, 0xdc, 0xff, 0xff, 0xff,
  0x09, 0x00, 0x00, 0x00, 0x00, 0x00, 0x00, 0x09, 0xe8, 0xff, 0xff, 0xff,
  0x11, 0x00, 0x00, 0x00, 0x00, 0x00, 0x00, 0x11, 0xf4, 0xff, 0xff, 0xff,
  0x03, 0x00, 0x00, 0x00, 0x00, 0x00, 0x00, 0x03, 0x0c, 0x00, 0x0c, 0x00,
  0x0b, 0x00, 0x00, 0x00, 0x00, 0x00, 0x04, 0x00, 0x0c, 0x00, 0x00, 0x00,
  0x16, 0x00, 0x00, 0x00, 0x00, 0x00, 0x00, 0x16
};
unsigned int tflite_learn_23_len = 10928;
#endif // _EI_CLASSIFIER_TFLITE_LEARN_23_H_
