/* Generated by Edge Impulse
 *
 * Permission is hereby granted, free of charge, to any person obtaining a copy
 * of this software and associated documentation files (the "Software"), to deal
 * in the Software without restriction, including without limitation the rights
 * to use, copy, modify, merge, publish, distribute, sublicense, and/or sell
 * copies of the Software, and to permit persons to whom the Software is
 * furnished to do so, subject to the following conditions:
 *
 * The above copyright notice and this permission notice shall be included in
 * all copies or substantial portions of the Software.
 *
 * THE SOFTWARE IS PROVIDED "AS IS", WITHOUT WARRANTY OF ANY KIND, EXPRESS OR
 * IMPLIED, INCLUDING BUT NOT LIMITED TO THE WARRANTIES OF MERCHANTABILITY,
 * FITNESS FOR A PARTICULAR PURPOSE AND NONINFRINGEMENT. IN NO EVENT SHALL THE
 * AUTHORS OR COPYRIGHT HOLDERS BE LIABLE FOR ANY CLAIM, DAMAGES OR OTHER
 * LIABILITY, WHETHER IN AN ACTION OF CONTRACT, TORT OR OTHERWISE, ARISING FROM,
 * OUT OF OR IN CONNECTION WITH THE SOFTWARE OR THE USE OR OTHER DEALINGS IN THE
 * SOFTWARE.
 */

#ifndef _EI_CLASSIFIER_TFLITE_LEARN_14_H_
#define _EI_CLASSIFIER_TFLITE_LEARN_14_H_

#define EI_CLASSIFIER_TFLITE_LEARN_14_ARENA_SIZE     10508
const size_t tflite_learn_14_arena_size = 10508;

#ifdef EI_CLASSIFIER_TFLITE_ARENA_SIZE
#if EI_CLASSIFIER_TFLITE_ARENA_SIZE < EI_CLASSIFIER_TFLITE_LEARN_14_ARENA_SIZE
#undef EI_CLASSIFIER_TFLITE_ARENA_SIZE
#define EI_CLASSIFIER_TFLITE_ARENA_SIZE EI_CLASSIFIER_TFLITE_LEARN_14_ARENA_SIZE
#endif // #if EI_CLASSIFIER_TFLITE_ARENA_SIZE < EI_CLASSIFIER_TFLITE_LEARN_14_ARENA_SIZE
#else
#define EI_CLASSIFIER_TFLITE_ARENA_SIZE EI_CLASSIFIER_TFLITE_LEARN_14_ARENA_SIZE
#endif // #ifdef EI_CLASSIFIER_TFLITE_ARENA_SIZE

#if defined __GNUC__
#define ALIGN(X) __attribute__((aligned(X)))
#elif defined _MSC_VER
#define ALIGN(X) __declspec(align(X))
#elif defined __TASKING__
#define ALIGN(X) __align(X)
#else
#define ALIGN(X)
#endif

ALIGN(16) const unsigned char tflite_learn_14[] = {
  0x1c, 0x00, 0x00, 0x00, 0x54, 0x46, 0x4c, 0x33, 0x14, 0x00, 0x20, 0x00,
  0x1c, 0x00, 0x18, 0x00, 0x14, 0x00, 0x10, 0x00, 0x0c, 0x00, 0x00, 0x00,
  0x08, 0x00, 0x04, 0x00, 0x14, 0x00, 0x00, 0x00, 0x1c, 0x00, 0x00, 0x00,
  0x8c, 0x00, 0x00, 0x00, 0xe4, 0x00, 0x00, 0x00, 0x64, 0x1e, 0x00, 0x00,
  0x74, 0x1e, 0x00, 0x00, 0x1c, 0x2a, 0x00, 0x00, 0x03, 0x00, 0x00, 0x00,
  0x01, 0x00, 0x00, 0x00, 0x10, 0x00, 0x00, 0x00, 0x00, 0x00, 0x0a, 0x00,
  0x10, 0x00, 0x0c, 0x00, 0x08, 0x00, 0x04, 0x00, 0x0a, 0x00, 0x00, 0x00,
  0x0c, 0x00, 0x00, 0x00, 0x1c, 0x00, 0x00, 0x00, 0x3c, 0x00, 0x00, 0x00,
  0x0f, 0x00, 0x00, 0x00, 0x73, 0x65, 0x72, 0x76, 0x69, 0x6e, 0x67, 0x5f,
  0x64, 0x65, 0x66, 0x61, 0x75, 0x6c, 0x74, 0x00, 0x01, 0x00, 0x00, 0x00,
  0x04, 0x00, 0x00, 0x00, 0x9c, 0xff, 0xff, 0xff, 0x16, 0x00, 0x00, 0x00,
  0x04, 0x00, 0x00, 0x00, 0x08, 0x00, 0x00, 0x00, 0x6f, 0x75, 0x74, 0x70,
  0x75, 0x74, 0x5f, 0x30, 0x00, 0x00, 0x00, 0x00, 0x01, 0x00, 0x00, 0x00,
  0x04, 0x00, 0x00, 0x00, 0x76, 0xe1, 0xff, 0xff, 0x04, 0x00, 0x00, 0x00,
  0x01, 0x00, 0x00, 0x00, 0x78, 0x00, 0x00, 0x00, 0x02, 0x00, 0x00, 0x00,
  0x34, 0x00, 0x00, 0x00, 0x04, 0x00, 0x00, 0x00, 0xdc, 0xff, 0xff, 0xff,
  0x19, 0x00, 0x00, 0x00, 0x04, 0x00, 0x00, 0x00, 0x13, 0x00, 0x00, 0x00,
  0x43, 0x4f, 0x4e, 0x56, 0x45, 0x52, 0x53, 0x49, 0x4f, 0x4e, 0x5f, 0x4d,
  0x45, 0x54, 0x41, 0x44, 0x41, 0x54, 0x41, 0x00, 0x08, 0x00, 0x0c, 0x00,
  0x08, 0x00, 0x04, 0x00, 0x08, 0x00, 0x00, 0x00, 0x18, 0x00, 0x00, 0x00,
  0x04, 0x00, 0x00, 0x00, 0x13, 0x00, 0x00, 0x00, 0x6d, 0x69, 0x6e, 0x5f,
  0x72, 0x75, 0x6e, 0x74, 0x69, 0x6d, 0x65, 0x5f, 0x76, 0x65, 0x72, 0x73,
  0x69, 0x6f, 0x6e, 0x00, 0x1a, 0x00, 0x00, 0x00, 0x7c, 0x1d, 0x00, 0x00,
  0x74, 0x1d, 0x00, 0x00, 0x44, 0x1d, 0x00, 0x00, 0xf4, 0x1c, 0x00, 0x00,
  0xd4, 0x1c, 0x00, 0x00, 0xb4, 0x1c, 0x00, 0x00, 0x94, 0x1c, 0x00, 0x00,
  0x74, 0x1c, 0x00, 0x00, 0x84, 0x17, 0x00, 0x00, 0x74, 0x11, 0x00, 0x00,
  0x50, 0x11, 0x00, 0x00, 0x38, 0x11, 0x00, 0x00, 0xe8, 0x00, 0x00, 0x00,
  0xe0, 0x00, 0x00, 0x00, 0xd8, 0x00, 0x00, 0x00, 0xd0, 0x00, 0x00, 0x00,
  0xc8, 0x00, 0x00, 0x00, 0xc0, 0x00, 0x00, 0x00, 0xb8, 0x00, 0x00, 0x00,
  0xb0, 0x00, 0x00, 0x00, 0xa8, 0x00, 0x00, 0x00, 0xa0, 0x00, 0x00, 0x00,
  0x98, 0x00, 0x00, 0x00, 0x90, 0x00, 0x00, 0x00, 0x70, 0x00, 0x00, 0x00,
  0x04, 0x00, 0x00, 0x00, 0x4e, 0xe2, 0xff, 0xff, 0x04, 0x00, 0x00, 0x00,
  0x5c, 0x00, 0x00, 0x00, 0x0c, 0x00, 0x00, 0x00, 0x08, 0x00, 0x0e, 0x00,
  0x08, 0x00, 0x04, 0x00, 0x08, 0x00, 0x00, 0x00, 0x14, 0x00, 0x00, 0x00,
  0x2c, 0x00, 0x00, 0x00, 0x00, 0x00, 0x0a, 0x00, 0x0c, 0x00, 0x08, 0x00,
  0x00, 0x00, 0x07, 0x00, 0x0a, 0x00, 0x00, 0x00, 0x00, 0x00, 0x00, 0x01,
  0x04, 0x00, 0x00, 0x00, 0x00, 0x00, 0x00, 0x00, 0x00, 0x00, 0x0a, 0x00,
  0x10, 0x00, 0x0c, 0x00, 0x08, 0x00, 0x04, 0x00, 0x0a, 0x00, 0x00, 0x00,
  0x03, 0x00, 0x00, 0x00, 0x02, 0x00, 0x00, 0x00, 0x04, 0x00, 0x00, 0x00,
  0x06, 0x00, 0x00, 0x00, 0x32, 0x2e, 0x31, 0x31, 0x2e, 0x31, 0x00, 0x00,
  0xb6, 0xe2, 0xff, 0xff, 0x04, 0x00, 0x00, 0x00, 0x10, 0x00, 0x00, 0x00,
  0x31, 0x2e, 0x35, 0x2e, 0x30, 0x00, 0x00, 0x00, 0x00, 0x00, 0x00, 0x00,
  0x00, 0x00, 0x00, 0x00, 0xd8, 0xd7, 0xff, 0xff, 0xdc, 0xd7, 0xff, 0xff,
  0xe0, 0xd7, 0xff, 0xff, 0xe4, 0xd7, 0xff, 0xff, 0xe8, 0xd7, 0xff, 0xff,
  0xec, 0xd7, 0xff, 0xff, 0xf0, 0xd7, 0xff, 0xff, 0xf4, 0xd7, 0xff, 0xff,
  0xf8, 0xd7, 0xff, 0xff, 0xfc, 0xd7, 0xff, 0xff, 0x00, 0xd8, 0xff, 0xff,
  0xfe, 0xe2, 0xff, 0xff, 0x04, 0x00, 0x00, 0x00, 0x40, 0x10, 0x00, 0x00,
  0x84, 0x3f, 0xd1, 0x3d, 0xb8, 0xbc, 0xcd, 0xbd, 0xa5, 0x13, 0xa5, 0xbe,
  0x0b, 0x23, 0x12, 0xba, 0x0d, 0xd5, 0xa1, 0xbe, 0x5d, 0xea, 0x8b, 0xbf,
  0xbc, 0x63, 0x77, 0x3e, 0xf7, 0x4b, 0x38, 0xbe, 0xaa, 0x79, 0xaf, 0x3e,
  0x06, 0xd8, 0xd6, 0x3d, 0x2b, 0x7e, 0x65, 0x3e, 0xd0, 0xf7, 0x6a, 0x3e,
  0xe6, 0x05, 0x97, 0x3e, 0x74, 0x01, 0x56, 0x3d, 0xc0, 0x54, 0xba, 0x3b,
  0x1f, 0x0c, 0xa7, 0x3e, 0x29, 0x95, 0xfb, 0x3d, 0xa0, 0xe0, 0xab, 0x3e,
  0xb0, 0x54, 0x3f, 0xbe, 0xd7, 0x1b, 0x71, 0x3e, 0x64, 0xbf, 0xf2, 0xbe,
  0xdf, 0x01, 0xc8, 0xbf, 0xbe, 0x65, 0xde, 0x3d, 0xaa, 0xed, 0x9d, 0xbe,
  0xfa, 0x6e, 0xc4, 0x3d, 0xf8, 0x39, 0x1a, 0x3e, 0xe2, 0x9b, 0x3f, 0x3e,
  0x65, 0x6c, 0x8a, 0x3e, 0x26, 0xfc, 0xfb, 0x3e, 0x5a, 0xe0, 0x75, 0xbf,
  0x87, 0x09, 0xdd, 0xbe, 0xe1, 0xc2, 0xb3, 0xbe, 0xbc, 0x38, 0x3b, 0x3e,
  0x70, 0xc1, 0x73, 0x3e, 0x35, 0xec, 0xc9, 0xbc, 0x2a, 0xff, 0x39, 0x3e,
  0xd7, 0x07, 0xed, 0xbe, 0x36, 0xcf, 0x5d, 0xbf, 0x8e, 0x1d, 0x5f, 0x3e,
  0xdb, 0xc8, 0x33, 0xbf, 0xf7, 0x27, 0x50, 0x3e, 0x44, 0x41, 0x71, 0xbc,
  0xde, 0x1b, 0x5e, 0x3e, 0x06, 0x38, 0x51, 0x3e, 0xbf, 0x75, 0x02, 0x3f,
  0x6d, 0x8c, 0x4a, 0xbf, 0xc2, 0x5e, 0x00, 0xbe, 0x4d, 0x43, 0x1c, 0xbf,
  0x9a, 0x05, 0xd3, 0x3d, 0x5f, 0xb0, 0x18, 0x3f, 0xbd, 0x1b, 0x27, 0xbd,
  0x90, 0x68, 0x8d, 0x3e, 0x5b, 0x70, 0xeb, 0xbe, 0x8b, 0x01, 0x90, 0xbf,
  0xab, 0x92, 0xea, 0xbd, 0xcf, 0xef, 0xb8, 0xbe, 0x0a, 0x8b, 0xea, 0x3d,
  0x37, 0xf4, 0x79, 0xbe, 0x04, 0x6a, 0x3a, 0x3e, 0x25, 0x79, 0xb1, 0x3e,
  0x45, 0xe0, 0x1b, 0x3e, 0xcf, 0x93, 0x01, 0xbf, 0x92, 0x3d, 0x19, 0x3d,
  0x02, 0x92, 0x04, 0xbf, 0x73, 0xd3, 0xb5, 0x3e, 0x38, 0x3d, 0x11, 0x3f,
  0xb7, 0x83, 0x56, 0x3d, 0x81, 0x9c, 0x73, 0x3e, 0x20, 0xc6, 0x72, 0xbf,
  0x0d, 0x96, 0x6f, 0xbf, 0xcb, 0x5f, 0x4b, 0xbc, 0x36, 0xa7, 0xce, 0x3a,
  0x04, 0xc2, 0x27, 0x3d, 0xaa, 0x8a, 0x7d, 0xbe, 0xaf, 0x7c, 0x06, 0xbf,
  0xc4, 0xd4, 0x01, 0x3f, 0xdb, 0x48, 0x4a, 0x3e, 0xd0, 0x1f, 0x0b, 0xbf,
  0x3c, 0xa5, 0x30, 0xbe, 0x30, 0xe3, 0xfa, 0xbe, 0xd8, 0x36, 0xcc, 0x3e,
  0x0e, 0xf5, 0x2a, 0x3f, 0x12, 0x83, 0x46, 0xbe, 0x57, 0xeb, 0x4c, 0x3e,
  0x67, 0x8a, 0x44, 0xbf, 0xb3, 0x2f, 0x4c, 0xbf, 0x53, 0xce, 0xec, 0xbd,
  0xfe, 0xde, 0x57, 0xbf, 0xbd, 0xba, 0xa3, 0xbe, 0xd6, 0x67, 0x9c, 0xbe,
  0x64, 0x54, 0x96, 0xbe, 0x73, 0x3c, 0x08, 0x3f, 0xeb, 0x07, 0x80, 0x3e,
  0xc2, 0xe5, 0x55, 0xbf, 0x55, 0x46, 0xf7, 0xbe, 0xa4, 0x41, 0xe2, 0xbe,
  0xf6, 0x6e, 0xf5, 0x3e, 0xa1, 0x5f, 0x4d, 0x3f, 0x97, 0x5d, 0xd5, 0x3e,
  0xdf, 0x90, 0xc0, 0x3e, 0x22, 0xb8, 0x4d, 0xbf, 0xe1, 0x1d, 0x06, 0xbf,
  0xdc, 0x81, 0x97, 0xbe, 0x8d, 0x19, 0x9c, 0xbf, 0x13, 0x8a, 0xc2, 0xbe,
  0xd6, 0x7e, 0xd9, 0xbe, 0x99, 0x41, 0xd1, 0xbd, 0x96, 0xb8, 0x8c, 0x3e,
  0x94, 0xa5, 0x44, 0x3e, 0xf4, 0xfe, 0xf0, 0x3a, 0x0c, 0x4d, 0x03, 0x3e,
  0xd4, 0x8d, 0x8d, 0x3e, 0x44, 0xfa, 0xd0, 0x3e, 0x1e, 0x09, 0x63, 0x3f,
  0xbc, 0x53, 0xb3, 0x3d, 0x3b, 0xa5, 0x58, 0xbd, 0x8d, 0x63, 0x85, 0xbf,
  0x27, 0xbc, 0x10, 0xbf, 0xa8, 0x97, 0x8f, 0xbe, 0xc6, 0xa0, 0xc1, 0xbf,
  0x2c, 0xcb, 0xae, 0xbf, 0xd6, 0xab, 0xc5, 0xbe, 0x46, 0xe7, 0xe5, 0xbf,
  0xe6, 0xbd, 0xd0, 0xbe, 0x5f, 0xba, 0xce, 0x3e, 0x94, 0x22, 0x6f, 0xbd,
  0x8e, 0x23, 0x13, 0xbe, 0x65, 0xfd, 0xb4, 0x3e, 0x03, 0x64, 0x10, 0x3f,
  0x65, 0xb6, 0x00, 0x3f, 0xf6, 0x09, 0x8a, 0xbf, 0xe6, 0x2d, 0x72, 0xbe,
  0x4f, 0x48, 0xb2, 0xbf, 0x87, 0x29, 0x3e, 0xbf, 0x30, 0xe2, 0x81, 0xbe,
  0xd2, 0x3b, 0xc6, 0xbf, 0x81, 0x47, 0x7c, 0xbf, 0xcd, 0xc4, 0x39, 0xbf,
  0xa1, 0xa9, 0x01, 0xbf, 0xde, 0xb2, 0xae, 0xbe, 0x7c, 0x18, 0x9b, 0x3e,
  0xfb, 0xd4, 0x92, 0x3e, 0xf4, 0x88, 0xbf, 0xbf, 0x93, 0x30, 0xa8, 0xbf,
  0x24, 0xe7, 0x38, 0x3f, 0x43, 0x39, 0x25, 0x3f, 0x45, 0x64, 0xbd, 0x3e,
  0xe7, 0x3f, 0x86, 0x3e, 0x11, 0x74, 0x81, 0xbf, 0x04, 0x9a, 0xd0, 0xbe,
  0xfe, 0x19, 0xdb, 0xbe, 0x0e, 0x57, 0xad, 0xbf, 0x25, 0x25, 0x41, 0xbf,
  0xf7, 0xc8, 0xe8, 0xbe, 0xd1, 0xaa, 0x77, 0x3d, 0x3b, 0xd6, 0x01, 0x3c,
  0x28, 0xe8, 0x99, 0x3e, 0xa2, 0x76, 0x9e, 0xbd, 0xce, 0xec, 0x9e, 0xbf,
  0xaf, 0x9c, 0x10, 0x3e, 0x0a, 0xef, 0x37, 0x3e, 0x5a, 0xef, 0xe8, 0x3e,
  0x74, 0x8e, 0x4a, 0x3e, 0x32, 0x1b, 0xdd, 0x3d, 0xe7, 0x7f, 0x3a, 0xbf,
  0xd7, 0x06, 0x21, 0xbe, 0xa8, 0xaf, 0xf3, 0xbe, 0x30, 0x33, 0xa2, 0xbf,
  0x2e, 0x30, 0x27, 0xbe, 0x30, 0x63, 0x6f, 0xbe, 0xf8, 0x9e, 0x9a, 0xbe,
  0x32, 0xf6, 0x64, 0x3e, 0x67, 0x94, 0xaf, 0x3e, 0xed, 0x0f, 0x95, 0x3d,
  0x89, 0x34, 0x00, 0xbf, 0x5c, 0xef, 0x11, 0xbf, 0x62, 0x56, 0x81, 0x3e,
  0xce, 0x6e, 0x46, 0x3e, 0x83, 0x9c, 0xd9, 0x3c, 0x2b, 0xbb, 0x96, 0x3d,
  0xe4, 0xb0, 0x46, 0xbf, 0xd1, 0x88, 0x4d, 0x3e, 0x4c, 0xda, 0xf1, 0xbe,
  0x64, 0xdb, 0x0e, 0xbf, 0x5f, 0x25, 0xf0, 0xbd, 0x0a, 0xc4, 0x89, 0xbf,
  0x9a, 0xa7, 0x94, 0xbf, 0xb8, 0xdd, 0x68, 0x3e, 0x22, 0x5a, 0x41, 0x3e,
  0xf0, 0x4b, 0x09, 0x3d, 0xf6, 0xce, 0x75, 0xbe, 0xf8, 0x20, 0x96, 0x3d,
  0x64, 0xbc, 0x9c, 0x3e, 0xf9, 0xb5, 0x90, 0xbf, 0x4e, 0x1e, 0x39, 0xbc,
  0x1c, 0xe3, 0x68, 0x3e, 0x54, 0xdf, 0xc8, 0xbc, 0xb5, 0x89, 0xd2, 0x3d,
  0xad, 0x74, 0x0a, 0xbf, 0xb9, 0xa3, 0xbe, 0xbe, 0x78, 0xab, 0xaf, 0xbf,
  0x5a, 0x0b, 0x21, 0xbf, 0x34, 0xca, 0x14, 0xbf, 0x66, 0xe7, 0x74, 0xbf,
  0x03, 0x27, 0x30, 0xbd, 0x5d, 0x82, 0xe5, 0x3d, 0xdb, 0x9f, 0xb1, 0x3e,
  0xb3, 0x31, 0x77, 0x3f, 0xe9, 0x76, 0x33, 0xbe, 0x08, 0x5a, 0xb1, 0x3e,
  0x07, 0xb2, 0x86, 0x3e, 0x15, 0x6a, 0x3b, 0x3e, 0x48, 0xdb, 0x04, 0x3f,
  0x30, 0x36, 0xe6, 0x3e, 0xc2, 0x6d, 0x05, 0xbf, 0xe5, 0x21, 0x4b, 0x3d,
  0xce, 0xa7, 0x41, 0x3e, 0xb8, 0xf9, 0x15, 0x39, 0x2a, 0x40, 0x93, 0xbe,
  0x32, 0xe7, 0x9f, 0x3d, 0x0d, 0xf1, 0x97, 0xbe, 0x14, 0xdf, 0x5e, 0x3e,
  0x2f, 0xba, 0x65, 0x3c, 0x74, 0x01, 0x46, 0xbe, 0x65, 0x61, 0xbd, 0xbe,
  0xed, 0x35, 0xbb, 0x3c, 0xe7, 0x05, 0x84, 0xbe, 0xe8, 0x36, 0x1e, 0xbd,
  0xc5, 0x21, 0x7f, 0x3e, 0xf4, 0xdc, 0xdd, 0x3e, 0x59, 0xe5, 0x30, 0xbf,
  0xab, 0xd8, 0xa5, 0x3e, 0x9a, 0x7e, 0xcd, 0xbd, 0x2e, 0x26, 0x9d, 0x3e,
  0x3d, 0x97, 0xc1, 0xbe, 0x1b, 0xc4, 0x4d, 0x3d, 0x2a, 0x35, 0x10, 0xbf,
  0x21, 0x6c, 0x7f, 0x3e, 0xe5, 0x89, 0xec, 0x3d, 0xc3, 0xaa, 0xd4, 0xbd,
  0x00, 0xf9, 0xd9, 0xbe, 0x42, 0xa9, 0xfe, 0xbd, 0xb8, 0x51, 0x81, 0xbe,
  0x2c, 0x3b, 0x85, 0xbe, 0x83, 0xf8, 0x4f, 0x3e, 0xda, 0xd9, 0x54, 0x3e,
  0xc2, 0x8f, 0xff, 0xbe, 0xba, 0xf8, 0x95, 0x3e, 0x2f, 0xea, 0xb9, 0x3c,
  0xbb, 0xd5, 0xbf, 0x3e, 0x7f, 0x45, 0xa2, 0xbe, 0x93, 0x2d, 0xcc, 0x3d,
  0x95, 0xe9, 0x35, 0xbf, 0x04, 0x8b, 0x83, 0x3d, 0x5b, 0x2e, 0x00, 0x3e,
  0x24, 0x7a, 0x97, 0xbe, 0xae, 0xe3, 0x6f, 0xbe, 0xc3, 0xf0, 0x40, 0xbd,
  0x40, 0x26, 0x1c, 0xbf, 0xfb, 0x00, 0x12, 0xbf, 0xb3, 0x23, 0x0d, 0xbe,
  0xc3, 0x94, 0xd9, 0x3e, 0xa3, 0x9c, 0xd6, 0xbe, 0x72, 0x6b, 0x02, 0x3e,
  0x46, 0x26, 0x0b, 0xbf, 0x00, 0x01, 0x0e, 0xbd, 0x25, 0x13, 0x0e, 0xbf,
  0x7e, 0xe1, 0xbd, 0x3d, 0x3c, 0x2c, 0x2b, 0xbf, 0x94, 0xfb, 0x64, 0x3e,
  0x56, 0x29, 0x3e, 0x3e, 0x74, 0x5b, 0xae, 0xbe, 0x7e, 0x35, 0x32, 0xbe,
  0xa3, 0xfb, 0xec, 0xbc, 0x83, 0x08, 0xc8, 0xbe, 0x6f, 0x9c, 0x9b, 0xbe,
  0xb1, 0x09, 0x44, 0xbe, 0xbe, 0x12, 0x9a, 0x3e, 0x9c, 0x1d, 0xaf, 0xbd,
  0x22, 0xd8, 0x79, 0x3e, 0xd4, 0xc1, 0xfd, 0xbe, 0x96, 0x89, 0xd7, 0x3e,
  0x7d, 0x0f, 0x4c, 0xbf, 0x76, 0xe5, 0x8f, 0x3d, 0xc7, 0xb0, 0x12, 0xbf,
  0x57, 0x67, 0x1c, 0xbd, 0xfa, 0x8b, 0x32, 0xbd, 0x3e, 0x40, 0x63, 0xbd,
  0x27, 0xbb, 0xa6, 0xbe, 0x49, 0x10, 0xca, 0xbe, 0x12, 0x82, 0xcd, 0xbe,
  0xb0, 0xdd, 0xef, 0xbe, 0xf1, 0x34, 0xcf, 0xbe, 0xbb, 0x9e, 0xd6, 0x3d,
  0x47, 0x84, 0xa6, 0xbd, 0xbc, 0x26, 0x90, 0x3e, 0x50, 0x05, 0x03, 0xbe,
  0xe7, 0x31, 0x48, 0x3e, 0xfa, 0xb7, 0x03, 0xbf, 0xe0, 0x9f, 0x28, 0x3d,
  0xbd, 0xed, 0x4b, 0xbe, 0x67, 0x6e, 0xdc, 0xbd, 0x9c, 0xc1, 0xb8, 0xbd,
  0x15, 0x8a, 0xc3, 0xbe, 0xfa, 0x96, 0x91, 0x3c, 0x08, 0xdc, 0x04, 0xbf,
  0x26, 0xf6, 0x66, 0xbf, 0xa9, 0x7f, 0xcf, 0xbe, 0xc2, 0x60, 0xc5, 0xbe,
  0x0c, 0xc4, 0xc3, 0x3e, 0x55, 0x29, 0x1e, 0xbe, 0x25, 0xde, 0xca, 0x3e,
  0x35, 0xd4, 0x10, 0x3e, 0x71, 0xda, 0x9c, 0x3e, 0x10, 0xda, 0x94, 0xbe,
  0xdc, 0x00, 0x85, 0x3e, 0xcb, 0x0a, 0xb6, 0xbe, 0xcf, 0x81, 0x92, 0xbe,
  0x19, 0x05, 0xe2, 0x3d, 0xa2, 0xa2, 0x17, 0xbf, 0xb6, 0x1d, 0x66, 0xbe,
  0xb0, 0x2a, 0x8a, 0xbe, 0xb4, 0x06, 0x02, 0xbe, 0x11, 0xd1, 0x10, 0x3e,
  0x2c, 0x26, 0xaa, 0xbe, 0x57, 0xea, 0xe6, 0x3e, 0xd3, 0xa5, 0x10, 0xbe,
  0x89, 0xce, 0x0e, 0x3f, 0x10, 0xa0, 0x63, 0x3e, 0x59, 0x7c, 0x6a, 0x3e,
  0x52, 0xe3, 0x08, 0xbe, 0x93, 0x24, 0x8f, 0x3e, 0x98, 0xfd, 0xcd, 0xbe,
  0x52, 0xb9, 0x30, 0xbe, 0xd6, 0x52, 0x68, 0xbd, 0x76, 0xbe, 0x73, 0xbe,
  0x38, 0xb2, 0x58, 0xbe, 0x21, 0x3f, 0xdd, 0xbc, 0x52, 0xc2, 0x8d, 0xbe,
  0xad, 0xe7, 0x42, 0xbe, 0x95, 0xb2, 0x9d, 0xbe, 0xab, 0xf2, 0xed, 0x3e,
  0xfb, 0x17, 0xb4, 0xbe, 0xc0, 0x53, 0xac, 0x3e, 0x74, 0xd8, 0xef, 0xbd,
  0xd6, 0xec, 0x9c, 0x3b, 0x9d, 0x1c, 0xe0, 0xbe, 0x0d, 0x5c, 0x00, 0x3f,
  0xf4, 0x2c, 0xa7, 0xbe, 0x77, 0x57, 0x96, 0x3d, 0x06, 0x85, 0x93, 0x3d,
  0x0e, 0x33, 0x87, 0xbe, 0xbe, 0xea, 0xbf, 0xbe, 0xdc, 0xec, 0x3d, 0x3c,
  0x12, 0x9a, 0x62, 0xbe, 0x47, 0x69, 0x01, 0xbe, 0xa7, 0x69, 0x38, 0x3d,
  0xcc, 0x97, 0xa1, 0x3e, 0x57, 0x2d, 0xed, 0x3d, 0xfb, 0x17, 0xcd, 0x3e,
  0xac, 0x07, 0xc7, 0xbe, 0x42, 0x90, 0x88, 0x3d, 0x5e, 0xb4, 0xb8, 0xbe,
  0x56, 0x2f, 0x88, 0x3d, 0xd0, 0xab, 0xf7, 0xbe, 0x81, 0xdf, 0xb4, 0xbe,
  0xda, 0x03, 0x60, 0x3e, 0xcd, 0x57, 0xca, 0xbe, 0x22, 0x75, 0x7d, 0x3d,
  0x74, 0x53, 0x0d, 0xbe, 0xc8, 0xea, 0x78, 0xbe, 0x61, 0x68, 0x80, 0xbe,
  0x52, 0x99, 0x2f, 0x3e, 0x05, 0x9b, 0x5b, 0x3e, 0xd4, 0xa4, 0x97, 0xbe,
  0x8b, 0xaf, 0x65, 0x3e, 0x52, 0x17, 0x6f, 0xbe, 0xd0, 0xbf, 0x99, 0x3d,
  0xf8, 0x64, 0xa4, 0xbe, 0x5c, 0x43, 0xff, 0x3d, 0x72, 0xdd, 0x00, 0xbf,
  0x28, 0x14, 0x6f, 0xbe, 0xdd, 0xd2, 0x9e, 0x3e, 0xe3, 0x97, 0x89, 0xbe,
  0xe0, 0xee, 0x2d, 0xbe, 0x50, 0x56, 0xb1, 0xbd, 0x7e, 0x95, 0x05, 0xbf,
  0xcf, 0x92, 0xbb, 0xbd, 0x1d, 0x0f, 0x2f, 0x3e, 0xef, 0x00, 0x02, 0x3e,
  0x4b, 0x3f, 0x55, 0xbe, 0x3d, 0x34, 0x58, 0x3e, 0xaf, 0xc0, 0x13, 0xbe,
  0x08, 0xe4, 0x82, 0x3e, 0xf6, 0x81, 0x30, 0x3d, 0x50, 0xc6, 0xd6, 0x3c,
  0x61, 0xe8, 0xee, 0xbe, 0xa2, 0x59, 0x4c, 0xbe, 0xf8, 0x7c, 0x00, 0x3e,
  0xbe, 0x69, 0x18, 0x3d, 0x43, 0x26, 0xa4, 0xbe, 0x12, 0x89, 0xfa, 0x3d,
  0x01, 0x7a, 0x95, 0xbd, 0x9d, 0x62, 0x6a, 0xbc, 0xeb, 0xc1, 0x0f, 0x3f,
  0xad, 0x6f, 0xbf, 0x3d, 0xea, 0xad, 0x41, 0xbe, 0x9b, 0x68, 0x6e, 0x3e,
  0x71, 0xb5, 0xa0, 0xbe, 0xef, 0xa0, 0x44, 0x3f, 0x34, 0x5b, 0xfa, 0x3e,
  0xbd, 0x78, 0x47, 0x3e, 0xa7, 0x7f, 0xa8, 0xbe, 0x30, 0xb0, 0x2c, 0xbe,
  0xd9, 0x9e, 0x74, 0x3e, 0x12, 0x76, 0xa6, 0xbe, 0x1a, 0xda, 0x1f, 0x3f,
  0xfa, 0x14, 0x56, 0xbe, 0xfa, 0x08, 0x26, 0xbf, 0x12, 0xa5, 0x46, 0xbf,
  0x7e, 0x4f, 0x9c, 0xbf, 0xa5, 0x12, 0x65, 0xbf, 0xae, 0xb0, 0xe0, 0x3c,
  0xa7, 0x75, 0x58, 0xbe, 0x3c, 0x9f, 0x42, 0xbf, 0x92, 0xed, 0x08, 0xbf,
  0xfd, 0x71, 0x34, 0xbf, 0x5f, 0x74, 0x09, 0xbf, 0xb0, 0x7e, 0x83, 0xbe,
  0xd7, 0x6c, 0x27, 0xbf, 0x33, 0xdd, 0xa1, 0xbe, 0xe5, 0x4c, 0x3a, 0xbf,
  0x23, 0xa1, 0x08, 0x3f, 0x4e, 0x41, 0x86, 0xbe, 0x55, 0xc8, 0xaa, 0xbe,
  0xe3, 0x73, 0x4d, 0xbe, 0x14, 0x68, 0x31, 0x3e, 0x45, 0xa9, 0x3e, 0xbf,
  0x66, 0xf7, 0xef, 0x3d, 0x51, 0x1d, 0x7a, 0xbe, 0x51, 0x3e, 0x9c, 0x3e,
  0xf1, 0x03, 0x6c, 0xbf, 0x7e, 0x72, 0x2d, 0xbc, 0x76, 0x2c, 0x82, 0xbe,
  0x89, 0xe4, 0x17, 0xbf, 0xf0, 0xc2, 0xa7, 0xbe, 0x13, 0x53, 0x8b, 0x3d,
  0x50, 0xf4, 0xf8, 0xbe, 0x0a, 0xc2, 0xce, 0x3e, 0xc8, 0x09, 0x33, 0xbf,
  0x32, 0x4f, 0x4b, 0xbe, 0xd9, 0xdb, 0x96, 0xbe, 0xba, 0x76, 0x6b, 0x3e,
  0x73, 0x1b, 0x25, 0xbf, 0x2f, 0x99, 0x37, 0x3e, 0xe0, 0x15, 0xa0, 0xbe,
  0x89, 0x8b, 0xf6, 0x3e, 0xa8, 0x92, 0x32, 0xbf, 0x10, 0x08, 0x9e, 0x3e,
  0x5e, 0xec, 0xaa, 0x3c, 0xc5, 0x6f, 0x43, 0xbf, 0xd0, 0xda, 0x26, 0xbe,
  0x60, 0xc2, 0xb1, 0x3e, 0x8a, 0x1e, 0xf3, 0xbe, 0x89, 0xa8, 0x78, 0x3e,
  0x1d, 0xe2, 0xb7, 0xbe, 0x47, 0x9b, 0xde, 0xbe, 0x30, 0xaa, 0x7e, 0xbe,
  0x67, 0x73, 0x48, 0x3d, 0xd2, 0x1e, 0xcd, 0xbe, 0x70, 0x6e, 0x9d, 0x3e,
  0x44, 0xb3, 0xa8, 0xbe, 0xff, 0xc8, 0x2d, 0x3f, 0xf1, 0x70, 0x73, 0xbe,
  0xd5, 0x14, 0x91, 0x3e, 0xa5, 0x65, 0x44, 0xbe, 0x2b, 0xf0, 0x21, 0xbd,
  0xd8, 0x83, 0xed, 0xbd, 0x29, 0x36, 0x61, 0x3e, 0x13, 0x03, 0x41, 0xbf,
  0x8f, 0xc7, 0xee, 0x3e, 0x22, 0x25, 0xb2, 0xbd, 0x9a, 0xe5, 0x03, 0xbf,
  0x71, 0x92, 0x51, 0xbe, 0xe0, 0x91, 0x16, 0x3f, 0xbf, 0x33, 0xab, 0xbd,
  0x98, 0x83, 0x8c, 0xbe, 0x4f, 0x97, 0xb1, 0xbe, 0x5e, 0x88, 0x54, 0x3f,
  0x6e, 0xd6, 0xf4, 0xbc, 0xa5, 0x89, 0xb3, 0x3e, 0x95, 0x72, 0x0b, 0xbf,
  0x3e, 0x96, 0xa4, 0xbe, 0x62, 0x80, 0xdf, 0xbd, 0x8f, 0x6c, 0x99, 0x3e,
  0xcb, 0x31, 0x4e, 0xbf, 0x33, 0xd9, 0xfa, 0x3e, 0x94, 0x51, 0x4c, 0xba,
  0xe4, 0x53, 0xa5, 0xbd, 0x4a, 0x34, 0x23, 0xbe, 0x3a, 0xf7, 0x46, 0x3f,
  0x8f, 0x7d, 0x81, 0x3b, 0x88, 0x6b, 0x40, 0xbf, 0x87, 0xb0, 0x9e, 0xbe,
  0x00, 0xdd, 0x75, 0x3f, 0x1d, 0xe9, 0xaf, 0xbb, 0x78, 0x4d, 0x82, 0x3e,
  0x8d, 0xcf, 0x84, 0xbf, 0x86, 0x73, 0x23, 0xbe, 0x92, 0xfa, 0x15, 0xbc,
  0x63, 0x61, 0x4b, 0x3e, 0x51, 0xb5, 0x63, 0xbf, 0x32, 0x84, 0x49, 0x3e,
  0xcd, 0x0c, 0x3d, 0xbf, 0x23, 0x56, 0x4f, 0x3d, 0x95, 0x19, 0x1a, 0x3e,
  0x5c, 0x42, 0x10, 0x3f, 0xe4, 0x65, 0xa7, 0xbf, 0xb9, 0x46, 0xcd, 0xbe,
  0xa7, 0x20, 0x92, 0x3e, 0xd5, 0xea, 0xb5, 0x3e, 0xae, 0x76, 0x4c, 0x3f,
  0xe9, 0x05, 0xaf, 0x3e, 0x8e, 0x3f, 0x11, 0xbf, 0xc9, 0x4b, 0x22, 0xbf,
  0x8e, 0x71, 0x18, 0xbf, 0x23, 0x45, 0x86, 0xbe, 0x9e, 0xbf, 0xfd, 0xbe,
  0x06, 0x03, 0x11, 0x3f, 0x91, 0x1f, 0x9e, 0xbe, 0xfc, 0x8a, 0x6a, 0xbe,
  0xc4, 0x95, 0x7f, 0xbe, 0xed, 0xd7, 0xe3, 0x3e, 0x47, 0xcc, 0x3c, 0xbf,
  0x36, 0x7e, 0xc5, 0xbe, 0xc5, 0x54, 0x21, 0x3d, 0xca, 0x99, 0xf6, 0x3e,
  0xbb, 0x59, 0x9e, 0x3e, 0x91, 0x19, 0xa6, 0x3e, 0x7d, 0x9f, 0x4b, 0xbf,
  0xa2, 0x6b, 0x3a, 0xbf, 0x33, 0xaf, 0xad, 0x3e, 0x25, 0x2b, 0xfe, 0x3d,
  0xc5, 0x1f, 0x3d, 0xbf, 0x74, 0xb1, 0x18, 0x3f, 0x81, 0x2f, 0x11, 0xbf,
  0x8b, 0x59, 0x5c, 0xbe, 0x85, 0x4b, 0x78, 0xbe, 0x36, 0x3a, 0xbc, 0x3e,
  0xc8, 0x75, 0xf3, 0xbe, 0x9e, 0x59, 0x18, 0xbd, 0xf5, 0x0c, 0xdc, 0x3d,
  0xe4, 0xd1, 0x1a, 0x3f, 0xd5, 0xff, 0x77, 0x3e, 0xe2, 0xf5, 0x60, 0x3e,
  0x50, 0x13, 0xba, 0xbe, 0x8c, 0x2b, 0x30, 0xbf, 0xdf, 0x78, 0x5f, 0x3e,
  0x80, 0x6f, 0xd2, 0x3c, 0xb6, 0x9e, 0x1c, 0xbd, 0xa7, 0x45, 0xc8, 0x3e,
  0x57, 0x03, 0x84, 0xbf, 0x1f, 0x8e, 0x95, 0x3d, 0x13, 0x8a, 0x08, 0xbf,
  0xf6, 0x94, 0xb9, 0x3e, 0xeb, 0x5d, 0x38, 0xbf, 0x04, 0xdb, 0x79, 0x3e,
  0x50, 0xfa, 0x7a, 0x3e, 0xf4, 0x4f, 0xa9, 0x3e, 0x91, 0x3a, 0xf3, 0x3e,
  0x39, 0xb2, 0x41, 0x3e, 0xc4, 0xa4, 0xe8, 0xbe, 0x53, 0xa6, 0x32, 0xbf,
  0xda, 0x5d, 0x62, 0x3e, 0x69, 0x86, 0x9c, 0x3e, 0xd4, 0x04, 0x2b, 0xbe,
  0x08, 0xfa, 0x07, 0x3f, 0x0d, 0x00, 0x18, 0xbf, 0xef, 0xd4, 0x80, 0xbe,
  0xaa, 0xd3, 0x5f, 0xbe, 0x6f, 0x55, 0x83, 0x3e, 0x46, 0x5c, 0x71, 0xbf,
  0xaa, 0x8f, 0x6a, 0xbe, 0xc7, 0xd2, 0x5c, 0xbe, 0xcd, 0x09, 0xae, 0x3e,
  0x85, 0x24, 0x17, 0xbe, 0xbb, 0x36, 0x5f, 0x3e, 0x20, 0xc9, 0xb8, 0xbe,
  0xe4, 0x57, 0x2c, 0xbf, 0xfe, 0xa3, 0x58, 0xbf, 0x57, 0x94, 0x62, 0xbe,
  0x06, 0xf6, 0xa7, 0xbd, 0x05, 0xbd, 0xb1, 0x3e, 0xd2, 0xd1, 0x82, 0xbe,
  0x5a, 0xd0, 0x2d, 0x3e, 0x48, 0x42, 0x97, 0xbd, 0x5e, 0x3e, 0xbe, 0x3c,
  0x79, 0x03, 0x1d, 0xbf, 0xc1, 0xab, 0x92, 0xbd, 0x88, 0x95, 0xfd, 0xbe,
  0xd5, 0x52, 0x5e, 0x3e, 0x2f, 0x17, 0x57, 0xbe, 0x9a, 0x75, 0xc9, 0x3d,
  0x81, 0xec, 0xfd, 0xbc, 0x23, 0x22, 0x3b, 0xbd, 0x31, 0x46, 0x5b, 0xbe,
  0xe3, 0x8e, 0x01, 0x3d, 0xf1, 0xa8, 0x0b, 0xbf, 0x40, 0xdb, 0x23, 0x3f,
  0xb0, 0x68, 0xfd, 0xbe, 0xef, 0xac, 0x95, 0x3f, 0x92, 0x8e, 0xb7, 0xbd,
  0xce, 0xd2, 0x80, 0xbe, 0xee, 0x44, 0x9d, 0xbc, 0x67, 0x8d, 0xb8, 0xbe,
  0xe4, 0x82, 0x93, 0xbe, 0xea, 0x8f, 0x32, 0xbd, 0xcd, 0x44, 0x89, 0xbf,
  0x2c, 0xc7, 0x6b, 0xbf, 0x5b, 0xdc, 0x78, 0xbe, 0xd3, 0x16, 0x0f, 0x3e,
  0xed, 0x7f, 0x28, 0xbe, 0xa1, 0x88, 0xa5, 0x3d, 0x98, 0xf8, 0x2a, 0xbf,
  0xdf, 0xc3, 0x2e, 0xbd, 0x9d, 0x7f, 0x51, 0xbe, 0x55, 0x24, 0x6d, 0xbe,
  0x2e, 0xf5, 0x43, 0xbe, 0xbc, 0x22, 0xb0, 0xbe, 0x5b, 0xd7, 0xce, 0xbf,
  0xea, 0x11, 0xe9, 0x3e, 0x52, 0xc6, 0x57, 0xbe, 0xcb, 0x47, 0x05, 0x3e,
  0x9e, 0x0a, 0xca, 0x3e, 0x07, 0x5e, 0x07, 0x3e, 0x8f, 0x7e, 0xeb, 0x3d,
  0x1e, 0xd3, 0xad, 0xbd, 0x39, 0x1b, 0xf7, 0x3c, 0x40, 0x2e, 0x9a, 0xbe,
  0x3c, 0xbb, 0x41, 0x3d, 0x22, 0x5a, 0xda, 0x3d, 0x9f, 0x5e, 0x2e, 0xbe,
  0xba, 0x97, 0x53, 0x3e, 0xd9, 0xad, 0x2b, 0xbe, 0xec, 0xc4, 0x18, 0xbf,
  0xeb, 0x1b, 0x90, 0xbf, 0x2d, 0x80, 0xc1, 0x3e, 0x01, 0xba, 0x4a, 0xbf,
  0xa1, 0x46, 0x38, 0xbe, 0x2c, 0xf8, 0xc1, 0xbd, 0x4d, 0x30, 0x84, 0xbe,
  0x86, 0xae, 0x96, 0x3d, 0xb3, 0x0f, 0x9e, 0x3e, 0xd9, 0xf0, 0xf6, 0x3e,
  0xc0, 0x4c, 0xe9, 0xbd, 0x88, 0x22, 0xc7, 0x3e, 0x8f, 0xd8, 0x20, 0xbe,
  0x71, 0x55, 0xa1, 0xbd, 0xb2, 0x97, 0xbc, 0x3d, 0xad, 0x29, 0xd9, 0xbd,
  0x66, 0x6f, 0x5c, 0xbf, 0xf4, 0x0d, 0xe2, 0xbe, 0x77, 0xc3, 0xe7, 0x3e,
  0x9b, 0x07, 0x47, 0xbf, 0xc8, 0x00, 0xb5, 0xbe, 0xd7, 0x03, 0x46, 0x3e,
  0x18, 0x00, 0x0e, 0xbf, 0xc3, 0xfd, 0x2f, 0xbe, 0x2f, 0xe5, 0xfe, 0x3e,
  0x5a, 0xc6, 0x43, 0x3f, 0x6b, 0x25, 0xc8, 0xba, 0xe7, 0x39, 0x97, 0x3e,
  0x3c, 0xf4, 0x7c, 0xbe, 0xc3, 0x4a, 0x3a, 0xbe, 0x86, 0x5f, 0x69, 0x3e,
  0x2e, 0xbe, 0x19, 0xbc, 0xaa, 0x17, 0x07, 0xbf, 0x06, 0xd1, 0x13, 0xbe,
  0x34, 0x53, 0xbe, 0x3e, 0xe7, 0xc2, 0x3a, 0xbf, 0x2a, 0x6a, 0x70, 0xbf,
  0x88, 0x81, 0x19, 0x3e, 0xc7, 0x81, 0xf7, 0xbe, 0x1e, 0x62, 0x14, 0x3d,
  0x42, 0x15, 0x1a, 0x3f, 0xaa, 0x65, 0xd6, 0x3e, 0xc5, 0x1a, 0xb3, 0x3e,
  0x33, 0x66, 0xb4, 0x3e, 0xc1, 0x18, 0xb3, 0xbd, 0x68, 0x85, 0x66, 0xbf,
  0x81, 0x3d, 0x73, 0x3e, 0x63, 0xb0, 0x0c, 0xbe, 0x29, 0x66, 0x6e, 0xbf,
  0x16, 0xee, 0x07, 0xbe, 0x5c, 0x5f, 0x5c, 0x3e, 0xb3, 0x59, 0x02, 0xbf,
  0x4a, 0x54, 0x40, 0xbf, 0xca, 0xf4, 0x95, 0xbe, 0x17, 0xdc, 0x2f, 0xbf,
  0xfc, 0xc1, 0x3b, 0xbe, 0x1c, 0x7a, 0x15, 0x3f, 0x6e, 0x9b, 0xf2, 0x3e,
  0xec, 0x3a, 0x9c, 0x3d, 0xac, 0x0f, 0xd3, 0x3e, 0xf1, 0xb4, 0x18, 0xbe,
  0x56, 0x35, 0x60, 0xbf, 0x47, 0xb7, 0xab, 0x3e, 0xd3, 0xac, 0x05, 0xbe,
  0x91, 0xc8, 0x07, 0xbf, 0x69, 0xf9, 0xc3, 0x3e, 0xb5, 0xb0, 0xba, 0x3e,
  0xb5, 0xcd, 0xbe, 0xbe, 0xe8, 0x1a, 0x41, 0xbf, 0x74, 0xeb, 0x43, 0xbe,
  0x51, 0x56, 0x05, 0xbf, 0xe9, 0x11, 0x63, 0xbe, 0x82, 0xf3, 0xe5, 0x3e,
  0x21, 0x01, 0x42, 0x3f, 0x97, 0x31, 0x0d, 0x3f, 0x90, 0x39, 0xe2, 0x3e,
  0xc7, 0x85, 0x20, 0xbe, 0x06, 0x1c, 0xec, 0xbe, 0x94, 0x44, 0xa4, 0x3e,
  0x8c, 0x4e, 0xf4, 0x3c, 0xd9, 0x6f, 0x1b, 0xbf, 0x16, 0x6e, 0x14, 0xbe,
  0x05, 0x4f, 0x84, 0xbd, 0xca, 0xee, 0x9b, 0xbf, 0x11, 0x60, 0x69, 0xbf,
  0x96, 0xb8, 0x21, 0xbf, 0xb4, 0x2b, 0x0a, 0xbf, 0x6c, 0x7a, 0x58, 0xbe,
  0xea, 0xf7, 0x49, 0x3f, 0x36, 0x38, 0xdd, 0x3e, 0xf6, 0xa9, 0xb5, 0x3e,
  0x42, 0xc7, 0x13, 0x3f, 0xe0, 0x5c, 0xaa, 0xbe, 0x82, 0x9e, 0xb1, 0xbf,
  0x3c, 0x6e, 0xa7, 0xbc, 0x6a, 0xae, 0xe1, 0xbe, 0xcf, 0xe8, 0x9f, 0xbf,
  0x9e, 0x9d, 0x55, 0xbe, 0x4a, 0x62, 0x0a, 0xbd, 0x86, 0x03, 0xd7, 0xbf,
  0xc7, 0x5f, 0x68, 0xbf, 0x3d, 0x14, 0xc9, 0xbe, 0x38, 0xf2, 0x83, 0xbf,
  0xd7, 0xc8, 0xb8, 0xbe, 0x4a, 0x24, 0x22, 0x3f, 0x60, 0xe8, 0xd4, 0x3c,
  0x91, 0xa5, 0x0a, 0x3f, 0xa5, 0x05, 0x62, 0x3e, 0xff, 0x4c, 0x14, 0xbf,
  0x75, 0x20, 0x8c, 0xbe, 0x3c, 0xae, 0x00, 0x3f, 0xfe, 0xb3, 0x6f, 0xbe,
  0x89, 0x4e, 0x88, 0xbf, 0x31, 0x3a, 0xc0, 0xbe, 0x3b, 0x20, 0xce, 0xbe,
  0x77, 0x69, 0xc0, 0xbf, 0xaa, 0xfb, 0x8f, 0xbf, 0x50, 0xa7, 0x7c, 0xbe,
  0x58, 0x59, 0x92, 0xbe, 0x4c, 0xac, 0x33, 0x3e, 0xb4, 0x4a, 0x21, 0x3f,
  0x62, 0x77, 0x3c, 0xbe, 0x0b, 0x68, 0xbc, 0x3e, 0xc4, 0x30, 0xef, 0x3e,
  0xe8, 0x33, 0x90, 0xbe, 0x84, 0x89, 0x88, 0xbf, 0xb8, 0xd6, 0x6c, 0xbe,
  0xcc, 0xf6, 0x14, 0xbf, 0xe2, 0x3a, 0xc3, 0xbf, 0x24, 0x1c, 0x57, 0xbd,
  0x06, 0x23, 0x37, 0xbf, 0x96, 0xd2, 0x9c, 0xbf, 0x86, 0x9b, 0x13, 0xbe,
  0xb9, 0x83, 0xfc, 0xbe, 0xcf, 0xc3, 0xd5, 0xbf, 0x76, 0xca, 0x3c, 0xbe,
  0xb0, 0x1d, 0xee, 0x3e, 0x79, 0x81, 0x98, 0x3e, 0xa2, 0x48, 0x3c, 0x3d,
  0x30, 0x31, 0x33, 0x3e, 0xeb, 0xfa, 0x04, 0xbf, 0x9b, 0x95, 0x86, 0xbf,
  0x09, 0xff, 0x33, 0x3e, 0x02, 0xa0, 0x1c, 0xbf, 0xcf, 0x8b, 0xac, 0xbf,
  0x94, 0xee, 0x94, 0xbd, 0x9c, 0xba, 0x38, 0xbf, 0xec, 0x64, 0x51, 0xbf,
  0x4c, 0x34, 0xc9, 0xbe, 0x47, 0x43, 0xb6, 0xbe, 0x38, 0x8b, 0xf7, 0xbe,
  0x40, 0x48, 0x39, 0xbf, 0x43, 0x56, 0x98, 0x3e, 0x75, 0xc2, 0x05, 0x3f,
  0x0b, 0xa7, 0x93, 0xbc, 0x14, 0x6d, 0x22, 0x3e, 0xba, 0xb7, 0x8f, 0xbe,
  0xd6, 0xf1, 0x4f, 0xbe, 0x1f, 0x85, 0x67, 0x3d, 0xa4, 0x6a, 0x73, 0xbe,
  0x06, 0x06, 0x9d, 0xbf, 0x95, 0xf8, 0x3d, 0xbd, 0xb8, 0x87, 0xbb, 0x3e,
  0xe3, 0x51, 0x56, 0xbe, 0x1f, 0x16, 0x86, 0xbe, 0x9e, 0x25, 0x61, 0xbe,
  0x77, 0x65, 0x80, 0xbf, 0xf1, 0x93, 0xb0, 0xbe, 0x7d, 0x7f, 0xbb, 0x3e,
  0xad, 0x1e, 0x86, 0x3e, 0xac, 0xe4, 0xf5, 0xbd, 0x9d, 0xb7, 0xd8, 0x3e,
  0x50, 0xd8, 0x03, 0xbe, 0x5f, 0x47, 0x83, 0xbe, 0x1f, 0x11, 0x44, 0xbf,
  0x77, 0x99, 0xd4, 0xbe, 0x1e, 0x1b, 0x79, 0xbf, 0x7c, 0xc1, 0x1f, 0x3d,
  0xab, 0x4d, 0x36, 0x3e, 0x0e, 0x3a, 0x20, 0xbe, 0x3a, 0x0e, 0x18, 0x3f,
  0xc5, 0x13, 0x80, 0xbf, 0xff, 0xa8, 0x0e, 0xbf, 0x7c, 0x54, 0x39, 0x3d,
  0x50, 0xa5, 0x00, 0x3e, 0xd4, 0x4f, 0xaf, 0xbe, 0xc8, 0xb0, 0x70, 0xbf,
  0x1c, 0xde, 0x42, 0xbf, 0x52, 0x32, 0x45, 0xbe, 0xb8, 0xd8, 0x9c, 0x3d,
  0xdf, 0x1d, 0xa5, 0xbd, 0x47, 0x4c, 0x85, 0x3e, 0x2b, 0x95, 0x89, 0xbe,
  0x54, 0x91, 0x17, 0x3f, 0x4a, 0x99, 0x20, 0xbf, 0x34, 0x9e, 0x95, 0x3d,
  0x5e, 0x56, 0x88, 0xbe, 0x1b, 0xbb, 0x55, 0xbe, 0x5e, 0x68, 0x49, 0xbd,
  0xab, 0xee, 0xc7, 0xbd, 0xaf, 0xe4, 0xeb, 0x3d, 0x69, 0x6c, 0x04, 0x3e,
  0x46, 0x18, 0x9a, 0xbd, 0x5b, 0x93, 0x07, 0x3e, 0xa6, 0x47, 0x83, 0xbe,
  0x23, 0x51, 0x53, 0xbe, 0x9d, 0x97, 0x6f, 0x3e, 0x3e, 0x46, 0x8c, 0x3d,
  0x49, 0x31, 0x6b, 0x3c, 0x41, 0xb8, 0xd0, 0x3e, 0x0f, 0x25, 0x14, 0xbf,
  0x55, 0xaa, 0x67, 0x3e, 0x99, 0x78, 0xd6, 0xbe, 0xf4, 0xea, 0xae, 0xbe,
  0x7c, 0x26, 0x8d, 0x3e, 0xbe, 0xdd, 0xac, 0xbe, 0x1c, 0x63, 0x06, 0xbf,
  0xbe, 0x5e, 0xc1, 0xbd, 0x84, 0x7e, 0x13, 0xbe, 0x9c, 0xa7, 0xac, 0x3d,
  0x25, 0x93, 0x91, 0xbe, 0xdb, 0x79, 0x19, 0x3e, 0x73, 0x2a, 0xa6, 0x3e,
  0x16, 0x87, 0x8b, 0x3e, 0x82, 0xa5, 0x9c, 0x3e, 0x3a, 0x2c, 0x17, 0x3e,
  0xdf, 0xce, 0xcb, 0xbe, 0x86, 0x1d, 0xa9, 0x3e, 0xa1, 0xe4, 0x91, 0xbe,
  0xd5, 0x3a, 0xce, 0xbe, 0xb8, 0xbd, 0xb6, 0x3d, 0x00, 0x85, 0x65, 0xbe,
  0xb5, 0x7e, 0xf1, 0xbe, 0x1a, 0xe5, 0xa0, 0xbc, 0xcb, 0xc5, 0xaa, 0x3d,
  0x41, 0x03, 0x05, 0x3d, 0x4a, 0x57, 0x8a, 0xbe, 0x6d, 0x54, 0x52, 0xbd,
  0x4d, 0x6e, 0xa8, 0x3e, 0x4f, 0xb3, 0xa3, 0x3e, 0xa5, 0xae, 0x82, 0x3e,
  0xda, 0xd2, 0x70, 0x3e, 0x7e, 0x22, 0x57, 0xbe, 0x05, 0x14, 0xb4, 0x3e,
  0xb9, 0x48, 0xa3, 0x3d, 0x83, 0xb6, 0x0e, 0xbb, 0x18, 0x20, 0x92, 0x3e,
  0xa1, 0x3f, 0x23, 0xbd, 0xa0, 0x0f, 0x60, 0xbe, 0xb6, 0xc6, 0x00, 0xbc,
  0xf8, 0x21, 0xe1, 0xbe, 0x55, 0xe5, 0x56, 0x3e, 0xc7, 0x5c, 0xda, 0xbe,
  0x92, 0xd2, 0xa3, 0xbd, 0xaa, 0x22, 0xa2, 0x3e, 0xd8, 0xa6, 0xa3, 0x3e,
  0x31, 0x6a, 0x94, 0x3e, 0x0a, 0x25, 0x5d, 0x3d, 0x0f, 0xff, 0x2e, 0xbd,
  0x73, 0x10, 0x4a, 0x3e, 0x6c, 0x85, 0xd8, 0xbd, 0x3a, 0x23, 0xa8, 0xbe,
  0xbb, 0x14, 0xa5, 0x3e, 0xc9, 0x3f, 0x00, 0xbe, 0xc3, 0x45, 0xb8, 0xbe,
  0x7b, 0x46, 0xe1, 0xbd, 0xab, 0x47, 0x7b, 0xbe, 0x4d, 0x7b, 0x38, 0x3e,
  0x78, 0xa8, 0x72, 0xbe, 0x3e, 0x51, 0x09, 0xbe, 0xcc, 0x83, 0xb8, 0x3c,
  0xed, 0xf7, 0x82, 0x3e, 0xc6, 0xcb, 0x9f, 0x3d, 0xfd, 0xb0, 0x23, 0x3c,
  0xd3, 0xa6, 0xce, 0xbd, 0x2c, 0x59, 0x5c, 0x3e, 0xb3, 0x33, 0x95, 0x3d,
  0x08, 0xdf, 0xb8, 0x3d, 0xb7, 0xee, 0xed, 0x3e, 0xfe, 0xcb, 0x84, 0xbe,
  0x3b, 0x05, 0xc6, 0xbd, 0x0e, 0xf7, 0x7b, 0xbe, 0x27, 0x2d, 0xe0, 0xbe,
  0xa8, 0x9d, 0x86, 0x3e, 0x59, 0x49, 0x93, 0xbc, 0x4e, 0x4e, 0x85, 0x3e,
  0x52, 0x1c, 0xb6, 0x3d, 0x1c, 0x73, 0xed, 0x3d, 0xc1, 0x0e, 0x39, 0x3d,
  0x1c, 0x94, 0x00, 0x3e, 0x0a, 0xd9, 0xa0, 0x3e, 0x8b, 0xb2, 0x28, 0x3e,
  0xb7, 0xf2, 0x70, 0xbe, 0x64, 0x3d, 0x7f, 0xbd, 0x1e, 0xa7, 0xf4, 0x3c,
  0xce, 0x9c, 0xca, 0xbb, 0xe3, 0xb4, 0x19, 0xbe, 0x93, 0xf9, 0x4e, 0x3d,
  0xb3, 0x0c, 0xae, 0xbe, 0xb3, 0x90, 0xfe, 0xbc, 0xcf, 0x16, 0x96, 0xbe,
  0x42, 0xb3, 0xea, 0x3d, 0x64, 0x40, 0x97, 0x3e, 0x71, 0x19, 0xb5, 0x3e,
  0x5c, 0x38, 0x4b, 0x3e, 0x27, 0xcb, 0xf0, 0x3c, 0x6f, 0x21, 0x01, 0x3f,
  0x19, 0xac, 0xa4, 0x3e, 0x3f, 0xb9, 0x99, 0xbe, 0xe3, 0x55, 0x93, 0x3d,
  0xe3, 0xaf, 0x92, 0x3e, 0x7c, 0x29, 0x53, 0x3e, 0x4a, 0x65, 0x6d, 0xbe,
  0x52, 0xf3, 0xa1, 0xbe, 0xd0, 0xd2, 0xbb, 0xbe, 0x3f, 0x34, 0x34, 0xbd,
  0x8f, 0x02, 0xba, 0xbd, 0x9a, 0xcd, 0x4f, 0xbc, 0x7b, 0x44, 0xce, 0x3e,
  0x9c, 0xc3, 0xb0, 0x3e, 0x9c, 0x9d, 0xc8, 0x3e, 0x06, 0xde, 0xbe, 0x3d,
  0x06, 0x6b, 0xd6, 0x3e, 0xc7, 0xcf, 0x9b, 0x3e, 0xb1, 0x77, 0x5b, 0x3e,
  0x82, 0x19, 0x00, 0x3c, 0xb0, 0xf6, 0x23, 0x3e, 0x44, 0x5d, 0xb4, 0xbd,
  0x6c, 0xf8, 0xb5, 0xbd, 0xc3, 0xbe, 0x16, 0x3d, 0xe6, 0x50, 0x76, 0xbe,
  0xb2, 0x24, 0x76, 0x3c, 0x55, 0x33, 0x5d, 0xbd, 0x9a, 0x7e, 0xa8, 0xbd,
  0x83, 0x9c, 0x50, 0x3e, 0x20, 0x69, 0x56, 0x3e, 0x42, 0x32, 0x5c, 0x3e,
  0x02, 0x28, 0x48, 0x3e, 0x17, 0x70, 0xdf, 0x3e, 0x8a, 0x56, 0xd9, 0x3e,
  0x09, 0xb4, 0x42, 0xbc, 0x31, 0x22, 0x20, 0x3d, 0x57, 0xf0, 0xad, 0x3e,
  0xfe, 0xab, 0x34, 0x3e, 0x22, 0x09, 0x84, 0xbe, 0xe3, 0x7d, 0x31, 0xbe,
  0xe8, 0xc3, 0x16, 0xbe, 0x72, 0x91, 0x53, 0x3e, 0xcf, 0x66, 0x04, 0x3d,
  0x69, 0x55, 0xe9, 0xbd, 0x59, 0xbe, 0x34, 0x3e, 0x97, 0xdf, 0x83, 0x3d,
  0xe8, 0xdc, 0x23, 0x3e, 0xe3, 0xa4, 0xd9, 0x3d, 0x89, 0xa6, 0x10, 0x3f,
  0xab, 0xf0, 0x8e, 0x3d, 0x15, 0xf7, 0xe7, 0x3d, 0xa0, 0xa6, 0xfe, 0xbb,
  0xf3, 0xb8, 0x5f, 0x3e, 0x37, 0x67, 0xe1, 0xbb, 0x52, 0x02, 0x05, 0x3e,
  0xe8, 0xcd, 0x55, 0xbe, 0x26, 0x44, 0x0d, 0xbe, 0x9e, 0x68, 0x00, 0xbe,
  0xd9, 0xd0, 0x9e, 0xbe, 0x25, 0x66, 0x30, 0x3e, 0xbe, 0x19, 0x85, 0xbd,
  0x30, 0x14, 0x9c, 0x3d, 0xbb, 0xd2, 0xa6, 0xbc, 0xc9, 0x89, 0xce, 0x3c,
  0x8b, 0xbb, 0xcb, 0x3e, 0x56, 0xb2, 0x0c, 0x3e, 0xed, 0x48, 0x16, 0xbe,
  0x5c, 0x38, 0x0a, 0x3e, 0xaa, 0xc0, 0xb4, 0x3d, 0xcc, 0x6a, 0x80, 0x3e,
  0x15, 0xd7, 0x2f, 0xbd, 0xa8, 0x48, 0x80, 0xbe, 0xe6, 0x6f, 0x95, 0xbd,
  0xf9, 0xec, 0x3b, 0xbe, 0xc4, 0xd0, 0x78, 0x3b, 0xa1, 0xab, 0xe2, 0x3e,
  0x07, 0x53, 0x93, 0xbe, 0xe1, 0xf3, 0xed, 0x3d, 0x95, 0x2b, 0x79, 0xbe,
  0xf5, 0xf9, 0xb0, 0x3d, 0x6b, 0x39, 0x0a, 0x3e, 0x8f, 0x7e, 0x70, 0x3d,
  0x4c, 0xae, 0xe3, 0xbd, 0x06, 0xb1, 0x3a, 0xbe, 0x72, 0x91, 0x56, 0xbe,
  0x75, 0x83, 0xc0, 0x3d, 0xc3, 0xa6, 0x8f, 0x3d, 0xdf, 0x17, 0xb5, 0xbe,
  0x52, 0x92, 0x50, 0xbd, 0xc7, 0x71, 0x8f, 0x3c, 0x4a, 0xf3, 0xff, 0xff,
  0x04, 0x00, 0x00, 0x00, 0x08, 0x00, 0x00, 0x00, 0xff, 0xff, 0xff, 0xff,
  0xd0, 0x00, 0x00, 0x00, 0x5e, 0xf3, 0xff, 0xff, 0x04, 0x00, 0x00, 0x00,
  0x14, 0x00, 0x00, 0x00, 0xa7, 0xf7, 0xf8, 0x3e, 0xc4, 0x2d, 0xde, 0x3e,
  0x76, 0x4b, 0xab, 0xbf, 0xa8, 0x99, 0xc7, 0x3e, 0x26, 0x80, 0xde, 0xbe,
  0x7e, 0xf3, 0xff, 0xff, 0x04, 0x00, 0x00, 0x00, 0x00, 0x06, 0x00, 0x00,
  0x5c, 0x3b, 0x99, 0x3e, 0xb8, 0x47, 0xad, 0xbd, 0xc7, 0x98, 0xac, 0xbf,
  0x10, 0xaf, 0x82, 0x3d, 0xe7, 0x1d, 0xae, 0xbf, 0xd6, 0x58, 0xea, 0xbe,
  0x29, 0x4a, 0x14, 0x3f, 0x54, 0x44, 0x10, 0xbf, 0x61, 0x28, 0x3b, 0xbd,
  0xbe, 0x55, 0xcb, 0x3d, 0x8b, 0xaa, 0xf7, 0xbe, 0x28, 0xac, 0xd9, 0xbc,
  0x56, 0x76, 0x7f, 0xbf, 0x97, 0x9f, 0x95, 0xbf, 0x03, 0xb6, 0x9a, 0xbe,
  0xfe, 0x25, 0x1e, 0xbf, 0x99, 0xec, 0xff, 0xbc, 0x54, 0x0d, 0x95, 0xbb,
  0xdb, 0xa7, 0xa2, 0xbf, 0x31, 0xe6, 0x85, 0x3e, 0x59, 0x90, 0xff, 0xbe,
  0x5d, 0x49, 0x9e, 0xbf, 0xd4, 0x76, 0xd2, 0x3e, 0x32, 0xef, 0xea, 0xbd,
  0xf2, 0xd3, 0x97, 0xbe, 0xb8, 0x46, 0x9d, 0xbe, 0x4f, 0x8c, 0x78, 0xbe,
  0xf2, 0x11, 0x66, 0x3e, 0xf4, 0xa0, 0xb0, 0xbd, 0x82, 0xe9, 0x36, 0xbd,
  0x4f, 0x6c, 0x0e, 0x3e, 0x66, 0xf5, 0x14, 0x3d, 0x64, 0x3d, 0x81, 0xbe,
  0xbb, 0x33, 0xa4, 0x3d, 0x49, 0x6c, 0xfb, 0xbd, 0x26, 0x6b, 0xbb, 0x3e,
  0x4b, 0xaf, 0xcf, 0x3e, 0x0f, 0xff, 0x62, 0xbd, 0x3a, 0x50, 0xcc, 0x3d,
  0xfc, 0x50, 0xd2, 0x3e, 0x94, 0xc3, 0x22, 0xbe, 0x45, 0x6c, 0x94, 0x3d,
  0x4e, 0x72, 0x9d, 0x3d, 0xfe, 0x82, 0x9d, 0xbf, 0x3f, 0xb4, 0x59, 0x3e,
  0xd4, 0x9c, 0x5f, 0x3e, 0x1f, 0xd3, 0x2c, 0xbf, 0x9c, 0x31, 0x9f, 0xbc,
  0xcf, 0x11, 0x61, 0xbe, 0xab, 0x51, 0x21, 0xbf, 0x8a, 0x7c, 0x20, 0x3d,
  0xad, 0xe0, 0xd2, 0xbe, 0x06, 0xee, 0xec, 0xbe, 0xae, 0x44, 0x50, 0xbf,
  0x1b, 0x83, 0x3f, 0xbe, 0x08, 0x1c, 0x98, 0x3a, 0x25, 0xff, 0xa7, 0x3e,
  0x17, 0xbf, 0xaf, 0xbe, 0x93, 0x82, 0x8d, 0x3e, 0xca, 0x5c, 0x78, 0xbf,
  0xa2, 0x95, 0xb7, 0xbe, 0xde, 0xd4, 0x1e, 0xbc, 0xb6, 0xb2, 0x85, 0x3c,
  0xfc, 0x86, 0x17, 0x3f, 0x69, 0xe8, 0x3f, 0xbd, 0x79, 0xc4, 0xec, 0xbe,
  0x89, 0x1a, 0xfc, 0x3b, 0x50, 0xf1, 0x66, 0xbd, 0x63, 0x6c, 0x44, 0xbe,
  0x11, 0xb2, 0xdd, 0xbd, 0x82, 0x50, 0x08, 0x3e, 0x85, 0x65, 0x33, 0xbc,
  0xf8, 0xb6, 0xcb, 0xbe, 0x9a, 0xbe, 0x9a, 0xbe, 0xb9, 0x03, 0x2f, 0x3d,
  0xc1, 0x3d, 0x5a, 0xbd, 0xaf, 0x9d, 0x5b, 0x3e, 0x7e, 0xba, 0xa9, 0xbe,
  0xe5, 0xb2, 0xe9, 0xbd, 0xa4, 0x12, 0xb7, 0x3e, 0xdc, 0x83, 0x09, 0xbf,
  0xc5, 0x0d, 0x1a, 0xbf, 0x87, 0x85, 0xfc, 0x3d, 0x01, 0x28, 0xea, 0x3c,
  0xe5, 0x4c, 0x18, 0x3d, 0x9d, 0x67, 0x09, 0xbf, 0x6a, 0xe4, 0x82, 0xbc,
  0xd6, 0xf3, 0x3b, 0xbe, 0xac, 0x02, 0xce, 0xbe, 0xb4, 0xc5, 0xd5, 0xbf,
  0xaf, 0x77, 0xff, 0x3d, 0x05, 0xb7, 0x87, 0x3d, 0x88, 0x53, 0x24, 0xbe,
  0x50, 0x08, 0x19, 0xbe, 0xa5, 0x27, 0xe2, 0x3d, 0x74, 0xce, 0xe9, 0x3e,
  0xb4, 0x4d, 0x83, 0xbe, 0x30, 0x68, 0x44, 0xbf, 0x1b, 0x1f, 0x0b, 0xbe,
  0x44, 0x09, 0xa3, 0xbf, 0x99, 0xe6, 0xc7, 0xbe, 0xa3, 0x3a, 0x04, 0xbf,
  0x05, 0x39, 0x16, 0xbd, 0xb9, 0xfa, 0x47, 0x3d, 0x3d, 0xd7, 0x7f, 0xbe,
  0xd9, 0x09, 0x0a, 0xbf, 0x64, 0x15, 0x59, 0xbd, 0x41, 0xf0, 0xba, 0xbf,
  0x22, 0x7d, 0x01, 0xbf, 0xf7, 0x80, 0x88, 0xbe, 0x9f, 0x75, 0x1d, 0x3f,
  0x38, 0x38, 0xb3, 0xbd, 0x60, 0xd5, 0x87, 0xbd, 0x08, 0xa4, 0x16, 0xbf,
  0x03, 0x71, 0x22, 0xbd, 0x51, 0xd6, 0x29, 0xbf, 0xe4, 0x74, 0xd0, 0xbe,
  0x30, 0xe1, 0x91, 0xbe, 0x3c, 0xdd, 0x9f, 0xbe, 0xaa, 0xd5, 0xc7, 0x3d,
  0x25, 0xbb, 0x1b, 0x3d, 0xca, 0xb4, 0x2f, 0xbe, 0xd6, 0x83, 0x2c, 0x3e,
  0xc2, 0x63, 0xea, 0x3d, 0xc1, 0xa3, 0x5b, 0xbd, 0xb5, 0x50, 0x8c, 0x3d,
  0xd5, 0x65, 0x4d, 0xbe, 0x91, 0x0f, 0xff, 0xbe, 0x6c, 0x31, 0x1c, 0xbd,
  0x1b, 0x7d, 0x28, 0x3f, 0xef, 0x73, 0x28, 0xbe, 0x57, 0x3b, 0x73, 0x3d,
  0x79, 0xfe, 0x3c, 0x3c, 0xba, 0x8a, 0xe5, 0x3d, 0x9f, 0x14, 0x0d, 0xbf,
  0xc6, 0x21, 0xe8, 0xbe, 0xc3, 0x2b, 0xad, 0xbd, 0xfd, 0xda, 0xa5, 0xbd,
  0xdd, 0x6d, 0x2f, 0x3d, 0xaf, 0x1a, 0x25, 0xbd, 0xf4, 0x5e, 0x08, 0x3e,
  0x95, 0x2e, 0x13, 0x3e, 0xb5, 0xf1, 0x01, 0xbf, 0x3d, 0x83, 0x18, 0xbe,
  0xba, 0xab, 0x68, 0xbf, 0xf5, 0x7f, 0x52, 0xbf, 0xd9, 0xfd, 0xad, 0xbc,
  0x9c, 0xd4, 0x01, 0x3e, 0xde, 0xae, 0x94, 0xbf, 0x15, 0x56, 0x13, 0x3e,
  0x21, 0x5b, 0x43, 0xbe, 0x01, 0x04, 0x3b, 0x3e, 0x47, 0x77, 0xa1, 0xbe,
  0x31, 0x86, 0x84, 0xbf, 0xcd, 0x71, 0xe4, 0xbd, 0xdd, 0x5e, 0xea, 0x3d,
  0x04, 0xdd, 0x7f, 0xbf, 0x6d, 0xd9, 0xcc, 0xbe, 0x5e, 0x36, 0x98, 0xbe,
  0x07, 0x91, 0x81, 0xbe, 0x30, 0xbf, 0x70, 0xbe, 0x85, 0x03, 0x19, 0xbf,
  0x7d, 0x93, 0x23, 0xbf, 0xf4, 0x2b, 0x7c, 0x3e, 0x94, 0xdf, 0x16, 0xbf,
  0xec, 0xc6, 0xe1, 0xbe, 0x1d, 0x64, 0xed, 0xbe, 0x39, 0x80, 0x3e, 0xbe,
  0xe7, 0xf3, 0x52, 0xbe, 0x08, 0x51, 0xd0, 0x3e, 0xda, 0x34, 0x8c, 0xbe,
  0x78, 0x7e, 0xa4, 0xbd, 0x91, 0x7d, 0xa9, 0x3d, 0x13, 0x01, 0xa8, 0x3e,
  0x81, 0x68, 0x0e, 0x3e, 0xbb, 0x4f, 0x57, 0xbf, 0x68, 0x2d, 0x64, 0x3d,
  0xdb, 0xb3, 0x11, 0xbd, 0x29, 0x10, 0x02, 0xbf, 0x3a, 0x1f, 0x30, 0x3e,
  0x30, 0x2c, 0xf2, 0xbb, 0x33, 0xd6, 0x5e, 0x3e, 0x48, 0x11, 0x80, 0xbe,
  0xd5, 0x4f, 0x99, 0xbf, 0xfb, 0x4f, 0xab, 0x3b, 0x2d, 0x26, 0x07, 0xbd,
  0x68, 0x46, 0x47, 0xbe, 0x08, 0xc8, 0x95, 0x3e, 0xa9, 0x40, 0xb4, 0xbd,
  0xb4, 0xc4, 0xec, 0x3e, 0x3f, 0x7e, 0x8a, 0xbe, 0xd7, 0x37, 0xcc, 0xbf,
  0xb7, 0xa0, 0x89, 0x3d, 0x28, 0x1e, 0x97, 0xba, 0x45, 0x65, 0x96, 0xbe,
  0x55, 0x4a, 0xaa, 0xbe, 0x9e, 0x6f, 0x2d, 0x3d, 0xda, 0xb5, 0x2a, 0x3e,
  0x3a, 0xad, 0x5f, 0x3f, 0x8b, 0x78, 0xb8, 0xbe, 0x83, 0x28, 0xa9, 0xbe,
  0xaf, 0x6f, 0x5e, 0xbd, 0x33, 0xc6, 0x58, 0xbe, 0x77, 0x18, 0x7b, 0xba,
  0x09, 0x37, 0x8f, 0xbc, 0xcd, 0xaa, 0x1e, 0xbd, 0xe2, 0x8e, 0x9a, 0xbe,
  0x48, 0x7e, 0xec, 0xbe, 0x6e, 0x06, 0x63, 0xbe, 0xdd, 0x7e, 0xa2, 0xbb,
  0x52, 0xd7, 0x4e, 0xbb, 0x9c, 0x8f, 0xef, 0xbc, 0xd8, 0xfc, 0x90, 0xbe,
  0x16, 0x5f, 0x22, 0x3d, 0x69, 0x9b, 0x24, 0x3f, 0x73, 0x84, 0x09, 0xbf,
  0xf0, 0x81, 0x06, 0xbf, 0xf8, 0x1d, 0x14, 0xbe, 0x30, 0xdc, 0x8d, 0x3d,
  0x17, 0x2c, 0x51, 0xbf, 0x53, 0xdb, 0xc3, 0x3d, 0x98, 0x2a, 0x86, 0xbe,
  0xe6, 0x09, 0x32, 0xbe, 0xd5, 0xcc, 0xca, 0xbc, 0x1c, 0x0e, 0x3a, 0xbf,
  0x99, 0xad, 0x11, 0xbf, 0xb7, 0xa2, 0x9c, 0xbc, 0x57, 0x53, 0x1c, 0xbf,
  0x1e, 0xb3, 0xf2, 0x3c, 0x5c, 0x35, 0x00, 0x3e, 0xe1, 0x8b, 0x86, 0x3e,
  0x24, 0xb3, 0x2e, 0xbe, 0xfd, 0xf5, 0x4c, 0x3d, 0xf3, 0xda, 0xb7, 0xbd,
  0x2d, 0xce, 0xb4, 0xbe, 0x2e, 0x7a, 0x64, 0x3e, 0x6b, 0x09, 0xef, 0x3d,
  0x34, 0x50, 0x3f, 0x3e, 0x85, 0x30, 0xb1, 0x3d, 0x69, 0x88, 0x0d, 0xbf,
  0x03, 0xdc, 0x27, 0xbe, 0x8f, 0xc2, 0x00, 0xc0, 0xd4, 0xc2, 0x61, 0x3d,
  0x54, 0x71, 0xcb, 0xbe, 0xd6, 0x1d, 0x04, 0xbf, 0x9d, 0xde, 0xa2, 0xbf,
  0x95, 0x23, 0x95, 0x3d, 0xfe, 0x49, 0xcc, 0x3d, 0x50, 0x2b, 0xa1, 0xbe,
  0xdd, 0x84, 0xad, 0xbf, 0x52, 0x6b, 0x39, 0xbc, 0x07, 0xfc, 0x8c, 0xbe,
  0x2b, 0x17, 0x03, 0xbe, 0xb7, 0x4f, 0xe1, 0xbe, 0xfa, 0x6f, 0xbd, 0x3c,
  0x66, 0xa3, 0x68, 0xbd, 0x58, 0xde, 0xc3, 0xbe, 0xbd, 0x77, 0xc2, 0xbf,
  0x36, 0x28, 0x04, 0x3e, 0xe5, 0x17, 0xbb, 0xbd, 0xe4, 0x41, 0x38, 0x3e,
  0xd5, 0xe7, 0xd5, 0xbe, 0x23, 0xe6, 0x26, 0x3f, 0xd8, 0xa1, 0x9d, 0x3e,
  0x55, 0x48, 0x6a, 0xbe, 0xf4, 0xef, 0xf1, 0x3c, 0x24, 0x92, 0x98, 0xbd,
  0x34, 0xd8, 0xd7, 0x3e, 0x2d, 0x3c, 0xcb, 0x3e, 0x3b, 0xc7, 0xcf, 0x3d,
  0xc5, 0x9d, 0x9e, 0xbd, 0xd4, 0xe1, 0xc9, 0xbc, 0x61, 0xbe, 0x92, 0xbe,
  0xe0, 0x11, 0x16, 0x3d, 0x53, 0x44, 0xc7, 0x3b, 0xbf, 0xd4, 0xa0, 0xbe,
  0xc2, 0x97, 0x25, 0x3e, 0xe2, 0xca, 0xa4, 0xbe, 0x60, 0x2f, 0xda, 0xbd,
  0xd9, 0x5e, 0xc0, 0xbd, 0xfb, 0xb0, 0x84, 0x3c, 0x91, 0x58, 0x11, 0xbe,
  0xfb, 0x0c, 0x86, 0x3c, 0x6f, 0x66, 0xb6, 0x3c, 0xfc, 0x67, 0x93, 0xbe,
  0x10, 0x7f, 0xdc, 0x3d, 0xc8, 0x85, 0xde, 0xbd, 0x38, 0xf0, 0xe3, 0x3c,
  0x51, 0x85, 0xa4, 0xbf, 0x5c, 0x8f, 0xb0, 0xbd, 0x8b, 0x33, 0xf2, 0xbf,
  0xfa, 0x6b, 0x8a, 0x3d, 0xdf, 0xa9, 0x96, 0xbd, 0xf3, 0x24, 0x0b, 0xbe,
  0xe7, 0x42, 0x93, 0xbf, 0xed, 0xda, 0x9e, 0xbe, 0x73, 0x70, 0x89, 0xbf,
  0xa7, 0x3f, 0x0d, 0xbd, 0x9f, 0x66, 0xee, 0xbf, 0x97, 0xc4, 0xa8, 0x3d,
  0xf5, 0xeb, 0xd2, 0xbd, 0x09, 0xa4, 0xa2, 0xbe, 0xe5, 0x8d, 0xcc, 0xbf,
  0xc0, 0xba, 0xfc, 0xbe, 0x42, 0x3f, 0x5e, 0xbf, 0x04, 0x01, 0x22, 0x3e,
  0xc3, 0x47, 0xb6, 0xbf, 0xd0, 0x7f, 0x1b, 0xbe, 0x03, 0x33, 0x0f, 0xbe,
  0xc3, 0xe3, 0xb2, 0xbe, 0xc5, 0xac, 0x7d, 0xbf, 0x14, 0x06, 0xcf, 0xbe,
  0xbe, 0xbf, 0x9c, 0x3e, 0xf7, 0x6f, 0xdd, 0xbe, 0x49, 0x50, 0xd1, 0xbe,
  0x8c, 0x01, 0x5a, 0xbd, 0x9f, 0x72, 0xca, 0xbe, 0x12, 0xc9, 0xb8, 0xbe,
  0xb6, 0x50, 0x2b, 0xbf, 0x61, 0x71, 0x99, 0xbe, 0x10, 0xf2, 0xf0, 0x3e,
  0x45, 0xb8, 0x8a, 0x3e, 0xc8, 0x7d, 0x4f, 0xbd, 0x94, 0xe2, 0x5f, 0xbe,
  0x88, 0x0e, 0x43, 0xbe, 0xf5, 0xa4, 0x48, 0xbe, 0x54, 0x4e, 0x62, 0xbf,
  0x80, 0x6f, 0x59, 0xbe, 0x50, 0xde, 0x86, 0x3d, 0xbf, 0x35, 0xe4, 0x3d,
  0x10, 0x79, 0xee, 0x3e, 0x0d, 0xe6, 0x2e, 0xbf, 0x7c, 0x26, 0xe3, 0xbd,
  0x57, 0xef, 0xde, 0xbc, 0x2c, 0xc3, 0x76, 0xbf, 0x45, 0x24, 0x99, 0x3e,
  0x47, 0x3f, 0x8a, 0x3e, 0x23, 0x60, 0x8d, 0x3e, 0x1a, 0x8a, 0xa2, 0xbd,
  0x1f, 0x83, 0x8e, 0x3e, 0x08, 0x13, 0xc9, 0xbd, 0x2f, 0x99, 0xc2, 0x3c,
  0xd0, 0x49, 0x2d, 0xbe, 0x6c, 0xec, 0x69, 0xbe, 0xee, 0x90, 0xa4, 0x3d,
  0xe4, 0x77, 0x10, 0xbe, 0xac, 0x6e, 0x1c, 0x3f, 0x5d, 0xe9, 0x58, 0xbd,
  0x3f, 0x30, 0x9e, 0xbd, 0x18, 0x72, 0xb3, 0x3d, 0xe3, 0x41, 0x02, 0x3f,
  0xad, 0x4e, 0xaf, 0xbe, 0x16, 0xa2, 0x60, 0x3e, 0x8f, 0x22, 0x09, 0xbe,
  0x1c, 0x57, 0x6d, 0xbe, 0xc2, 0xf8, 0x91, 0xbc, 0xed, 0xac, 0x81, 0xbd,
  0x92, 0x99, 0xcd, 0x3d, 0xa2, 0xe8, 0x46, 0x3e, 0xe0, 0x57, 0x29, 0xbf,
  0x01, 0x75, 0xa2, 0x3e, 0xa9, 0x0c, 0x02, 0x3c, 0x01, 0x9f, 0x9c, 0x3e,
  0x54, 0x92, 0xfe, 0xbe, 0x6e, 0x07, 0x7f, 0xbe, 0xa2, 0xc4, 0x23, 0xbf,
  0x59, 0xc4, 0xbf, 0xbf, 0xd5, 0xe5, 0xee, 0xbd, 0xe9, 0xf1, 0xa7, 0x3d,
  0x11, 0x56, 0x1f, 0xbe, 0xd8, 0x32, 0xeb, 0xbd, 0xdf, 0xaa, 0x7e, 0xbf,
  0xf1, 0x21, 0xb3, 0xbe, 0x4c, 0x7f, 0x97, 0x3d, 0x4d, 0x56, 0x4c, 0xbf,
  0x02, 0x86, 0x8e, 0x3d, 0xb9, 0xb1, 0x1f, 0xbe, 0xb1, 0x53, 0x5f, 0xbe,
  0x36, 0x42, 0x12, 0x3f, 0xb0, 0x1d, 0x72, 0xbb, 0x4b, 0x94, 0xaf, 0xbe,
  0xec, 0x98, 0x96, 0xbe, 0xb9, 0x49, 0xe2, 0xbe, 0xfc, 0x1d, 0x84, 0x3e,
  0x8a, 0xf9, 0xff, 0xff, 0x04, 0x00, 0x00, 0x00, 0xe0, 0x04, 0x00, 0x00,
  0x97, 0x73, 0xcc, 0xbe, 0xb5, 0x64, 0x0b, 0xbf, 0x1c, 0xa4, 0xb3, 0x3e,
  0x1c, 0xdb, 0x9c, 0xbe, 0xbc, 0x46, 0x4e, 0xbe, 0xc2, 0x6e, 0x22, 0x3d,
  0x81, 0x2d, 0xca, 0x3c, 0x15, 0xff, 0x0b, 0x3e, 0xcf, 0xc1, 0x83, 0xbc,
  0x9b, 0xcf, 0xfc, 0x3d, 0x7d, 0xb8, 0x2e, 0x3e, 0x65, 0x5a, 0x7c, 0xbe,
  0x72, 0xb9, 0xb3, 0x3e, 0xe9, 0x91, 0x01, 0xbf, 0x6e, 0xf3, 0x43, 0xbf,
  0xb8, 0xe4, 0x05, 0xbd, 0x28, 0x43, 0xc1, 0x3d, 0x08, 0x76, 0xfb, 0x3e,
  0x2b, 0x7a, 0xdf, 0xbd, 0x8f, 0xb0, 0xcb, 0xbe, 0x68, 0x2e, 0x0f, 0x3c,
  0x98, 0x25, 0x58, 0x3e, 0x99, 0x64, 0x4f, 0x3e, 0x94, 0x45, 0xee, 0x3d,
  0x8e, 0x15, 0x30, 0x3e, 0xf2, 0x95, 0xfb, 0xbd, 0xa8, 0xab, 0x69, 0xbe,
  0xc1, 0x32, 0x6a, 0x3f, 0x3a, 0x7f, 0xf4, 0xbe, 0xbb, 0xf4, 0xb3, 0xbe,
  0x54, 0xe4, 0xfc, 0xbe, 0x29, 0x78, 0xeb, 0x3c, 0x73, 0xd6, 0x9c, 0x3b,
  0x41, 0x61, 0xf9, 0x3d, 0xc0, 0x5f, 0x8e, 0xbc, 0x29, 0x2b, 0xd0, 0x3e,
  0x3e, 0xb3, 0x18, 0x3d, 0xa8, 0x8e, 0x95, 0xbd, 0xa7, 0x39, 0x66, 0xbe,
  0x6e, 0xb5, 0x13, 0xc0, 0x3a, 0x48, 0xe2, 0xbe, 0xe0, 0x64, 0x58, 0xbe,
  0xc8, 0x7e, 0x79, 0xbc, 0x06, 0x95, 0x0c, 0xbe, 0x15, 0xb1, 0xba, 0xbe,
  0xe5, 0xed, 0x83, 0xbe, 0xdc, 0x82, 0x9f, 0xbe, 0xa6, 0x03, 0xf4, 0xbd,
  0x93, 0x39, 0xf4, 0xbd, 0xb9, 0xfd, 0x5b, 0xbe, 0xb5, 0xc0, 0x26, 0xbe,
  0xb7, 0xdf, 0x08, 0xbe, 0xc4, 0x79, 0x03, 0xbf, 0x4d, 0xf7, 0xc2, 0x3d,
  0x57, 0x75, 0x88, 0xbd, 0xe3, 0x38, 0x8b, 0x3d, 0x7f, 0xff, 0xa2, 0xbb,
  0x38, 0x0c, 0xb8, 0x3e, 0x89, 0x22, 0x34, 0x3d, 0x52, 0x33, 0x00, 0xbe,
  0x7f, 0x16, 0x2d, 0x3e, 0x9f, 0xc3, 0x74, 0x3e, 0x4c, 0xe9, 0x51, 0x3e,
  0x4d, 0x82, 0x19, 0x3e, 0x0a, 0x37, 0x10, 0x3e, 0x10, 0x5a, 0xc2, 0x3f,
  0xa8, 0x6f, 0x8f, 0xbe, 0xdc, 0xa3, 0xc6, 0xbd, 0x1f, 0x09, 0x14, 0xbe,
  0x1a, 0xe2, 0x61, 0xbd, 0xe2, 0xb3, 0xe8, 0xbd, 0x2b, 0x7e, 0xd6, 0xba,
  0x24, 0x9a, 0x74, 0x3e, 0xe9, 0x90, 0xac, 0xbc, 0x80, 0x6b, 0x00, 0xbe,
  0x1b, 0xe9, 0x70, 0xbe, 0xf3, 0x13, 0x2d, 0xbe, 0xd4, 0xb5, 0x31, 0xbe,
  0x28, 0xfe, 0x40, 0x3e, 0x26, 0x75, 0xe0, 0xbe, 0x6c, 0x18, 0x7f, 0xbd,
  0x92, 0x7d, 0xbf, 0xbe, 0xa9, 0x78, 0xc4, 0xbe, 0x40, 0x8c, 0x9e, 0xbe,
  0x64, 0x7d, 0xef, 0xbb, 0x9f, 0x87, 0x73, 0xbd, 0xd2, 0x6c, 0x2b, 0x3d,
  0xf2, 0xdf, 0x77, 0x3e, 0x29, 0x16, 0x95, 0xbd, 0x67, 0x94, 0x2a, 0xbd,
  0x5b, 0xf4, 0xf3, 0xbe, 0x75, 0x5c, 0x67, 0xbd, 0x58, 0x42, 0x60, 0xbd,
  0x3b, 0xca, 0xc1, 0xbe, 0xb8, 0xf1, 0x76, 0xbe, 0xfa, 0x1f, 0x06, 0xbe,
  0xb0, 0x1b, 0x6e, 0xbe, 0x14, 0xa6, 0xc1, 0x3d, 0xd6, 0xa4, 0x93, 0x3e,
  0x44, 0x73, 0x56, 0x3c, 0xaf, 0x9b, 0x98, 0xbe, 0xdd, 0xf5, 0x58, 0xbe,
  0xa4, 0x9f, 0xdd, 0x3c, 0x33, 0x8d, 0x07, 0xbe, 0xab, 0x03, 0x0b, 0xbe,
  0xa6, 0x5f, 0x4e, 0x3e, 0x85, 0xdb, 0xc0, 0xbe, 0xb3, 0x21, 0x01, 0xbf,
  0xeb, 0xf2, 0xb4, 0xbd, 0x8b, 0x8b, 0x80, 0x3e, 0x7d, 0xd1, 0xd9, 0x3e,
  0xaf, 0xe7, 0x87, 0x3d, 0xa9, 0x38, 0x2c, 0x3e, 0x76, 0xa9, 0x8b, 0x3e,
  0x78, 0x76, 0xc3, 0xbd, 0x9c, 0xac, 0x87, 0xbe, 0xe3, 0x29, 0xf6, 0xbd,
  0x0e, 0x13, 0x9f, 0xbf, 0x1b, 0xec, 0x50, 0xbe, 0xdf, 0x96, 0xaf, 0x3e,
  0x1e, 0xe1, 0x4a, 0x3e, 0xb1, 0x6d, 0xa7, 0x3d, 0xef, 0x90, 0x51, 0x3d,
  0xb8, 0x7b, 0x9b, 0xbb, 0x8c, 0x62, 0x29, 0xbe, 0xad, 0x6e, 0x29, 0x3e,
  0x5f, 0xb8, 0x11, 0x3d, 0xe9, 0x4c, 0x17, 0x3e, 0x98, 0x80, 0x11, 0x3d,
  0x58, 0xa0, 0x82, 0xbd, 0x70, 0x00, 0x36, 0xbe, 0xd5, 0x86, 0x55, 0x3e,
  0xad, 0xe9, 0x85, 0x3e, 0x54, 0x57, 0xb1, 0x3e, 0x8d, 0x94, 0xb1, 0x3e,
  0xb2, 0x8a, 0xf3, 0x3e, 0x3f, 0x69, 0x26, 0x3e, 0x45, 0x66, 0xa4, 0x3e,
  0xc1, 0x3f, 0x26, 0x3e, 0xfb, 0x70, 0x9c, 0xbd, 0x14, 0xef, 0x08, 0x3d,
  0x67, 0xc9, 0x75, 0xbe, 0xe3, 0x66, 0x8c, 0xbe, 0x91, 0xcd, 0x9c, 0x3e,
  0x16, 0xfd, 0xd7, 0x3e, 0x5b, 0x54, 0x03, 0x3d, 0xbc, 0x5b, 0xb4, 0xbe,
  0xbb, 0xfb, 0x39, 0xbe, 0x90, 0xf4, 0x81, 0x3e, 0xff, 0xd5, 0xe3, 0x3e,
  0x01, 0xc8, 0xcf, 0x3e, 0x14, 0x79, 0x08, 0x3e, 0x70, 0xae, 0xef, 0x3c,
  0xd6, 0x0f, 0xdb, 0x3c, 0xf6, 0xcb, 0xba, 0x3e, 0xa2, 0xb6, 0x77, 0x3d,
  0xf1, 0x13, 0xf3, 0x3d, 0xd3, 0x1d, 0x2c, 0x3e, 0xbb, 0x1a, 0x27, 0xbe,
  0x65, 0x10, 0x7c, 0x3e, 0x19, 0x66, 0xaa, 0xbd, 0x0a, 0xa5, 0xf5, 0x3e,
  0x9b, 0x00, 0x1a, 0x3e, 0x7a, 0xda, 0x89, 0x3e, 0x43, 0x7a, 0x97, 0xbe,
  0x1a, 0x17, 0xff, 0xbe, 0x27, 0xa4, 0x80, 0xbf, 0x0b, 0x16, 0xd0, 0xbe,
  0xae, 0xf5, 0x72, 0xbe, 0x92, 0x03, 0x51, 0xbe, 0x5f, 0x64, 0x8e, 0x3e,
  0x24, 0xf6, 0x40, 0xbd, 0xb1, 0x3f, 0x9a, 0x3e, 0x77, 0x87, 0x77, 0xbe,
  0x7d, 0x91, 0x25, 0x3e, 0x72, 0xaa, 0x51, 0xbe, 0x4c, 0x6c, 0x33, 0xbe,
  0x6e, 0x3e, 0x9c, 0xbe, 0xc7, 0x7d, 0xd9, 0xbe, 0x0b, 0x5d, 0xf8, 0xbd,
  0xb0, 0x61, 0xa1, 0x3d, 0x0e, 0x4b, 0xbb, 0x3c, 0x9a, 0xd7, 0x5f, 0xbf,
  0x07, 0xc3, 0x41, 0xbe, 0x5b, 0x31, 0x19, 0x3e, 0xac, 0xca, 0x04, 0xbe,
  0xda, 0xbf, 0x7c, 0xbe, 0x00, 0xd2, 0xa6, 0xbe, 0x62, 0xf8, 0x4e, 0xbe,
  0x6a, 0xfa, 0x84, 0xbc, 0x5e, 0xc0, 0x93, 0x3d, 0x71, 0x80, 0x67, 0x3c,
  0xa6, 0x15, 0xfe, 0x3e, 0xe2, 0x3a, 0xa6, 0x3e, 0xae, 0xd0, 0xc4, 0x3e,
  0xf9, 0xd8, 0x9e, 0xbe, 0x8b, 0x15, 0xda, 0xbd, 0x48, 0xb7, 0x39, 0x3f,
  0x98, 0x88, 0xca, 0x3d, 0x6b, 0x84, 0xd1, 0x3d, 0x7e, 0x38, 0x4a, 0xbe,
  0x06, 0xb6, 0xbb, 0xbb, 0x9c, 0xb9, 0x48, 0xbe, 0xc9, 0x27, 0x28, 0xbe,
  0x51, 0xcd, 0xfb, 0xbc, 0xcd, 0xc9, 0xba, 0x3e, 0xe9, 0x29, 0xca, 0x3d,
  0xf9, 0x98, 0xe7, 0x3d, 0x8b, 0x8c, 0x07, 0x3f, 0x47, 0xa6, 0x40, 0xbe,
  0x61, 0x1d, 0x80, 0xbf, 0x94, 0x72, 0x0e, 0xbf, 0x92, 0x60, 0xe5, 0xbe,
  0xc6, 0xc0, 0x9b, 0xbe, 0xe2, 0x42, 0xf7, 0xbe, 0x1e, 0xb1, 0x72, 0xbe,
  0x43, 0x3c, 0x94, 0xbe, 0x18, 0x6b, 0xc5, 0xbe, 0xd9, 0x44, 0xf2, 0xbe,
  0x31, 0x48, 0x36, 0xbe, 0x49, 0x64, 0xbc, 0xbe, 0x17, 0x66, 0x98, 0xbf,
  0xab, 0x74, 0xdd, 0x3c, 0x0d, 0xc7, 0x8a, 0x3e, 0x95, 0xb8, 0x1f, 0x3f,
  0xaa, 0x18, 0x1d, 0x3f, 0x8b, 0x3c, 0xc0, 0x3e, 0xe9, 0x01, 0x1e, 0x3f,
  0x5e, 0xeb, 0x84, 0x3e, 0x4b, 0x45, 0x84, 0x3e, 0x56, 0x6e, 0xe4, 0x3e,
  0x5c, 0x76, 0x1b, 0x3f, 0xfa, 0xc3, 0xc5, 0x3e, 0x59, 0xb9, 0x15, 0x3f,
  0x8f, 0x6a, 0x1f, 0x3e, 0x58, 0x56, 0xe1, 0xbd, 0x93, 0x3e, 0x29, 0xbe,
  0xf0, 0x30, 0xf0, 0x3d, 0xc8, 0x50, 0x51, 0xbd, 0xd8, 0x63, 0x36, 0xbe,
  0x2b, 0x00, 0x42, 0x3e, 0xa2, 0xe2, 0xd4, 0xbd, 0xa4, 0xb8, 0x40, 0xbd,
  0xaf, 0x26, 0xee, 0xbd, 0x97, 0x2c, 0x92, 0xbe, 0x31, 0xa0, 0xee, 0xbd,
  0x8c, 0x37, 0x6d, 0xbe, 0x70, 0xda, 0xb2, 0xbe, 0x4a, 0x2d, 0x8f, 0xbe,
  0x7b, 0x54, 0x82, 0x3c, 0x02, 0x51, 0xe7, 0x3d, 0x1f, 0x89, 0xc7, 0x3e,
  0x48, 0x11, 0x39, 0xbe, 0x30, 0xe5, 0x1c, 0x3e, 0x8c, 0xad, 0x87, 0xbd,
  0xbf, 0x4d, 0x9b, 0xbd, 0x43, 0xf9, 0x4d, 0xbc, 0x29, 0x7a, 0x38, 0xbe,
  0x18, 0x8d, 0x1b, 0xbe, 0xc8, 0x2e, 0xbc, 0xbd, 0xd6, 0xab, 0x48, 0x3e,
  0xb5, 0x7f, 0xbe, 0xbd, 0xcd, 0x31, 0x4d, 0x3e, 0x66, 0x08, 0x15, 0x3f,
  0x1c, 0x31, 0xbb, 0x3c, 0x41, 0xd4, 0x94, 0xbe, 0x4e, 0xc1, 0xca, 0x3e,
  0x84, 0x1d, 0x9b, 0xbe, 0x39, 0xb8, 0xa0, 0xbe, 0xa3, 0xd6, 0xe0, 0xbe,
  0x61, 0x2b, 0xe9, 0xbe, 0xf0, 0xb0, 0x77, 0xbd, 0xe6, 0x00, 0x47, 0xbe,
  0x4a, 0x34, 0x25, 0x3f, 0xda, 0xae, 0xed, 0x3e, 0x0c, 0x76, 0xc9, 0xbd,
  0x9c, 0xe7, 0x70, 0x3e, 0x23, 0xc8, 0xa6, 0xbe, 0x3d, 0x60, 0xe4, 0x3d,
  0x1d, 0xdc, 0x54, 0xbe, 0xb2, 0x7c, 0x84, 0xbd, 0x08, 0x8c, 0xb8, 0xbb,
  0x7b, 0xe7, 0xe3, 0xbd, 0xe2, 0x97, 0x72, 0xbd, 0x41, 0x86, 0xfe, 0xbd,
  0xaa, 0x4f, 0xb9, 0xbc, 0x3e, 0xd2, 0x61, 0x3e, 0xe1, 0xe5, 0xbe, 0x3e,
  0x3e, 0x8b, 0xf2, 0x3e, 0x96, 0xca, 0x79, 0xbd, 0xd1, 0x3a, 0x5b, 0x3e,
  0x4b, 0x71, 0x8d, 0xbe, 0x43, 0xb0, 0x08, 0x3d, 0x0d, 0xe1, 0x26, 0xbe,
  0xf7, 0xc4, 0xb5, 0x3d, 0xaa, 0x0e, 0x88, 0xbe, 0x2a, 0x5c, 0x7d, 0x3d,
  0x85, 0x04, 0x13, 0xbe, 0x4f, 0x2c, 0x17, 0x3e, 0xdc, 0xd8, 0x06, 0x3f,
  0xc0, 0x1b, 0x5e, 0x3f, 0x87, 0x2f, 0x72, 0xbe, 0xd7, 0x17, 0x6d, 0x3e,
  0x9a, 0x27, 0x83, 0xbd, 0x55, 0xf5, 0x7e, 0xbd, 0xfe, 0xda, 0x7c, 0xbd,
  0x4a, 0xc9, 0x27, 0x3e, 0xc3, 0x35, 0x8a, 0xbe, 0x44, 0xb2, 0x3d, 0xbd,
  0x82, 0x33, 0x42, 0xbe, 0x51, 0xae, 0x19, 0x3e, 0x0c, 0xc5, 0x04, 0xbe,
  0x76, 0xfe, 0xff, 0xff, 0x04, 0x00, 0x00, 0x00, 0x10, 0x00, 0x00, 0x00,
  0x01, 0x00, 0x00, 0x00, 0x19, 0x00, 0x00, 0x00, 0x01, 0x00, 0x00, 0x00,
  0x10, 0x00, 0x00, 0x00, 0x92, 0xfe, 0xff, 0xff, 0x04, 0x00, 0x00, 0x00,
  0x10, 0x00, 0x00, 0x00, 0x01, 0x00, 0x00, 0x00, 0x01, 0x00, 0x00, 0x00,
  0x19, 0x00, 0x00, 0x00, 0x08, 0x00, 0x00, 0x00, 0xae, 0xfe, 0xff, 0xff,
  0x04, 0x00, 0x00, 0x00, 0x10, 0x00, 0x00, 0x00, 0x01, 0x00, 0x00, 0x00,
  0x31, 0x00, 0x00, 0x00, 0x01, 0x00, 0x00, 0x00, 0x08, 0x00, 0x00, 0x00,
  0xca, 0xfe, 0xff, 0xff, 0x04, 0x00, 0x00, 0x00, 0x10, 0x00, 0x00, 0x00,
  0x01, 0x00, 0x00, 0x00, 0x01, 0x00, 0x00, 0x00, 0x31, 0x00, 0x00, 0x00,
  0x0d, 0x00, 0x00, 0x00, 0xe6, 0xfe, 0xff, 0xff, 0x04, 0x00, 0x00, 0x00,
  0x40, 0x00, 0x00, 0x00, 0x54, 0x46, 0xa5, 0x3e, 0xd5, 0xa9, 0x1e, 0xc0,
  0xb4, 0x41, 0xcb, 0xbe, 0x52, 0x8f, 0xbc, 0xbe, 0xd3, 0x51, 0x76, 0x3f,
  0xcc, 0xb0, 0xa5, 0xbf, 0xe3, 0x1a, 0xbd, 0x3e, 0x40, 0xc8, 0xa4, 0xbf,
  0x8a, 0xe1, 0x9b, 0xbf, 0xc1, 0x29, 0x13, 0x3f, 0xe8, 0x13, 0xaf, 0x3e,
  0xfa, 0x00, 0x6d, 0xbf, 0xb5, 0x74, 0x4e, 0x3f, 0xc7, 0xd0, 0xb6, 0xbf,
  0x06, 0x54, 0xa9, 0xbf, 0x24, 0x7b, 0x73, 0xbf, 0x32, 0xff, 0xff, 0xff,
  0x04, 0x00, 0x00, 0x00, 0x20, 0x00, 0x00, 0x00, 0x7f, 0x3e, 0x9f, 0xbf,
  0x44, 0xaf, 0x0e, 0x3e, 0x02, 0x6e, 0x00, 0xc0, 0x27, 0xf6, 0x8a, 0xbe,
  0x85, 0x59, 0xc3, 0xbf, 0x4b, 0x77, 0x8c, 0xbf, 0x35, 0x2b, 0x36, 0xc0,
  0x11, 0x89, 0xf7, 0xbf, 0x64, 0xf4, 0xff, 0xff, 0x68, 0xf4, 0xff, 0xff,
  0x0f, 0x00, 0x00, 0x00, 0x4d, 0x4c, 0x49, 0x52, 0x20, 0x43, 0x6f, 0x6e,
  0x76, 0x65, 0x72, 0x74, 0x65, 0x64, 0x2e, 0x00, 0x01, 0x00, 0x00, 0x00,
  0x14, 0x00, 0x00, 0x00, 0x00, 0x00, 0x0e, 0x00, 0x18, 0x00, 0x14, 0x00,
  0x10, 0x00, 0x0c, 0x00, 0x08, 0x00, 0x04, 0x00, 0x0e, 0x00, 0x00, 0x00,
  0x14, 0x00, 0x00, 0x00, 0x1c, 0x00, 0x00, 0x00, 0x84, 0x02, 0x00, 0x00,
  0x88, 0x02, 0x00, 0x00, 0x8c, 0x02, 0x00, 0x00, 0x04, 0x00, 0x00, 0x00,
  0x6d, 0x61, 0x69, 0x6e, 0x00, 0x00, 0x00, 0x00, 0x0b, 0x00, 0x00, 0x00,
  0x48, 0x02, 0x00, 0x00, 0xec, 0x01, 0x00, 0x00, 0xb8, 0x01, 0x00, 0x00,
  0x68, 0x01, 0x00, 0x00, 0x44, 0x01, 0x00, 0x00, 0x00, 0x01, 0x00, 0x00,
  0xdc, 0x00, 0x00, 0x00, 0x9c, 0x00, 0x00, 0x00, 0x78, 0x00, 0x00, 0x00,
  0x40, 0x00, 0x00, 0x00, 0x04, 0x00, 0x00, 0x00, 0x4a, 0xfe, 0xff, 0xff,
  0x1c, 0x00, 0x00, 0x00, 0x00, 0x00, 0x00, 0x09, 0x1c, 0x00, 0x00, 0x00,
  0x20, 0x00, 0x00, 0x00, 0x04, 0x00, 0x00, 0x00, 0x00, 0x00, 0x06, 0x00,
  0x08, 0x00, 0x04, 0x00, 0x06, 0x00, 0x00, 0x00, 0x00, 0x00, 0x80, 0x3f,
  0x01, 0x00, 0x00, 0x00, 0x16, 0x00, 0x00, 0x00, 0x01, 0x00, 0x00, 0x00,
  0x15, 0x00, 0x00, 0x00, 0x82, 0xfe, 0xff, 0xff, 0x14, 0x00, 0x00, 0x00,
  0x00, 0x00, 0x00, 0x08, 0x10, 0x00, 0x00, 0x00, 0x14, 0x00, 0x00, 0x00,
  0x03, 0x00, 0x00, 0x00, 0x3c, 0xf5, 0xff, 0xff, 0x01, 0x00, 0x00, 0x00,
  0x15, 0x00, 0x00, 0x00, 0x03, 0x00, 0x00, 0x00, 0x14, 0x00, 0x00, 0x00,
  0x0b, 0x00, 0x00, 0x00, 0x09, 0x00, 0x00, 0x00, 0x5a, 0xfe, 0xff, 0xff,
  0x08, 0x00, 0x00, 0x00, 0x0c, 0x00, 0x00, 0x00, 0x01, 0x00, 0x00, 0x00,
  0x14, 0x00, 0x00, 0x00, 0x02, 0x00, 0x00, 0x00, 0x13, 0x00, 0x00, 0x00,
  0x0a, 0x00, 0x00, 0x00, 0xd6, 0xfe, 0xff, 0xff, 0x14, 0x00, 0x00, 0x00,
  0x00, 0x00, 0x00, 0x05, 0x20, 0x00, 0x00, 0x00, 0x24, 0x00, 0x00, 0x00,
  0x02, 0x00, 0x00, 0x00, 0x42, 0xff, 0xff, 0xff, 0x02, 0x00, 0x00, 0x00,
  0x01, 0x00, 0x00, 0x00, 0x02, 0x00, 0x00, 0x00, 0x01, 0x00, 0x00, 0x00,
  0x01, 0x00, 0x00, 0x00, 0x13, 0x00, 0x00, 0x00, 0x01, 0x00, 0x00, 0x00,
  0x12, 0x00, 0x00, 0x00, 0xb6, 0xfe, 0xff, 0xff, 0x08, 0x00, 0x00, 0x00,
  0x0c, 0x00, 0x00, 0x00, 0x01, 0x00, 0x00, 0x00, 0x12, 0x00, 0x00, 0x00,
  0x02, 0x00, 0x00, 0x00, 0x11, 0x00, 0x00, 0x00, 0x06, 0x00, 0x00, 0x00,
  0x32, 0xff, 0xff, 0xff, 0x14, 0x00, 0x00, 0x00, 0x00, 0x00, 0x00, 0x01,
  0x1c, 0x00, 0x00, 0x00, 0x20, 0x00, 0x00, 0x00, 0x01, 0x00, 0x00, 0x00,
  0x24, 0xff, 0xff, 0xff, 0x00, 0x00, 0x00, 0x01, 0x01, 0x00, 0x00, 0x00,
  0x01, 0x00, 0x00, 0x00, 0x01, 0x00, 0x00, 0x00, 0x11, 0x00, 0x00, 0x00,
  0x03, 0x00, 0x00, 0x00, 0x10, 0x00, 0x00, 0x00, 0x08, 0x00, 0x00, 0x00,
  0x02, 0x00, 0x00, 0x00, 0x16, 0xff, 0xff, 0xff, 0x08, 0x00, 0x00, 0x00,
  0x0c, 0x00, 0x00, 0x00, 0x01, 0x00, 0x00, 0x00, 0x10, 0x00, 0x00, 0x00,
  0x02, 0x00, 0x00, 0x00, 0x0f, 0x00, 0x00, 0x00, 0x05, 0x00, 0x00, 0x00,
  0x92, 0xff, 0xff, 0xff, 0x24, 0x00, 0x00, 0x00, 0x00, 0x00, 0x00, 0x05,
  0x30, 0x00, 0x00, 0x00, 0x34, 0x00, 0x00, 0x00, 0x02, 0x00, 0x00, 0x00,
  0x00, 0x00, 0x0e, 0x00, 0x14, 0x00, 0x00, 0x00, 0x10, 0x00, 0x0c, 0x00,
  0x08, 0x00, 0x04, 0x00, 0x0e, 0x00, 0x00, 0x00, 0x02, 0x00, 0x00, 0x00,
  0x01, 0x00, 0x00, 0x00, 0x02, 0x00, 0x00, 0x00, 0x01, 0x00, 0x00, 0x00,
  0x01, 0x00, 0x00, 0x00, 0x0f, 0x00, 0x00, 0x00, 0x01, 0x00, 0x00, 0x00,
  0x0e, 0x00, 0x00, 0x00, 0x82, 0xff, 0xff, 0xff, 0x08, 0x00, 0x00, 0x00,
  0x0c, 0x00, 0x00, 0x00, 0x01, 0x00, 0x00, 0x00, 0x0e, 0x00, 0x00, 0x00,
  0x02, 0x00, 0x00, 0x00, 0x0d, 0x00, 0x00, 0x00, 0x04, 0x00, 0x00, 0x00,
  0x00, 0x00, 0x0e, 0x00, 0x18, 0x00, 0x14, 0x00, 0x10, 0x00, 0x0c, 0x00,
  0x0b, 0x00, 0x04, 0x00, 0x0e, 0x00, 0x00, 0x00, 0x20, 0x00, 0x00, 0x00,
  0x00, 0x00, 0x00, 0x01, 0x28, 0x00, 0x00, 0x00, 0x2c, 0x00, 0x00, 0x00,
  0x01, 0x00, 0x00, 0x00, 0x0c, 0x00, 0x10, 0x00, 0x00, 0x00, 0x0c, 0x00,
  0x08, 0x00, 0x07, 0x00, 0x0c, 0x00, 0x00, 0x00, 0x00, 0x00, 0x00, 0x01,
  0x01, 0x00, 0x00, 0x00, 0x01, 0x00, 0x00, 0x00, 0x01, 0x00, 0x00, 0x00,
  0x0d, 0x00, 0x00, 0x00, 0x03, 0x00, 0x00, 0x00, 0x0c, 0x00, 0x00, 0x00,
  0x07, 0x00, 0x00, 0x00, 0x01, 0x00, 0x00, 0x00, 0x00, 0x00, 0x0a, 0x00,
  0x0c, 0x00, 0x00, 0x00, 0x08, 0x00, 0x04, 0x00, 0x0a, 0x00, 0x00, 0x00,
  0x08, 0x00, 0x00, 0x00, 0x0c, 0x00, 0x00, 0x00, 0x01, 0x00, 0x00, 0x00,
  0x0c, 0x00, 0x00, 0x00, 0x02, 0x00, 0x00, 0x00, 0x00, 0x00, 0x00, 0x00,
  0x03, 0x00, 0x00, 0x00, 0x01, 0x00, 0x00, 0x00, 0x16, 0x00, 0x00, 0x00,
  0x01, 0x00, 0x00, 0x00, 0x00, 0x00, 0x00, 0x00, 0x17, 0x00, 0x00, 0x00,
  0xac, 0x08, 0x00, 0x00, 0x3c, 0x08, 0x00, 0x00, 0xe4, 0x07, 0x00, 0x00,
  0x90, 0x07, 0x00, 0x00, 0x24, 0x07, 0x00, 0x00, 0xcc, 0x06, 0x00, 0x00,
  0x74, 0x06, 0x00, 0x00, 0x20, 0x06, 0x00, 0x00, 0xcc, 0x05, 0x00, 0x00,
  0x74, 0x05, 0x00, 0x00, 0x28, 0x05, 0x00, 0x00, 0xdc, 0x04, 0x00, 0x00,
  0x7c, 0x04, 0x00, 0x00, 0xb0, 0x03, 0x00, 0x00, 0x50, 0x03, 0x00, 0x00,
  0xf4, 0x02, 0x00, 0x00, 0x94, 0x02, 0x00, 0x00, 0xbc, 0x01, 0x00, 0x00,
  0x5c, 0x01, 0x00, 0x00, 0x00, 0x01, 0x00, 0x00, 0xb4, 0x00, 0x00, 0x00,
  0x50, 0x00, 0x00, 0x00, 0x04, 0x00, 0x00, 0x00, 0xc6, 0xf7, 0xff, 0xff,
  0x00, 0x00, 0x00, 0x01, 0x10, 0x00, 0x00, 0x00, 0x10, 0x00, 0x00, 0x00,
  0x17, 0x00, 0x00, 0x00, 0x28, 0x00, 0x00, 0x00, 0xb0, 0xf7, 0xff, 0xff,
  0x19, 0x00, 0x00, 0x00, 0x53, 0x74, 0x61, 0x74, 0x65, 0x66, 0x75, 0x6c,
  0x50, 0x61, 0x72, 0x74, 0x69, 0x74, 0x69, 0x6f, 0x6e, 0x65, 0x64, 0x43,
  0x61, 0x6c, 0x6c, 0x3a, 0x30, 0x00, 0x00, 0x00, 0x02, 0x00, 0x00, 0x00,
  0x01, 0x00, 0x00, 0x00, 0x05, 0x00, 0x00, 0x00, 0x0e, 0xf8, 0xff, 0xff,
  0x00, 0x00, 0x00, 0x01, 0x10, 0x00, 0x00, 0x00, 0x10, 0x00, 0x00, 0x00,
  0x16, 0x00, 0x00, 0x00, 0x40, 0x00, 0x00, 0x00, 0xf8, 0xf7, 0xff, 0xff,
  0x32, 0x00, 0x00, 0x00, 0x73, 0x65, 0x71, 0x75, 0x65, 0x6e, 0x74, 0x69,
  0x61, 0x6c, 0x2f, 0x79, 0x5f, 0x70, 0x72, 0x65, 0x64, 0x2f, 0x4d, 0x61,
  0x74, 0x4d, 0x75, 0x6c, 0x3b, 0x73, 0x65, 0x71, 0x75, 0x65, 0x6e, 0x74,
  0x69, 0x61, 0x6c, 0x2f, 0x79, 0x5f, 0x70, 0x72, 0x65, 0x64, 0x2f, 0x42,
  0x69, 0x61, 0x73, 0x41, 0x64, 0x64, 0x00, 0x00, 0x02, 0x00, 0x00, 0x00,
  0x01, 0x00, 0x00, 0x00, 0x05, 0x00, 0x00, 0x00, 0x6e, 0xf8, 0xff, 0xff,
  0x00, 0x00, 0x00, 0x01, 0x10, 0x00, 0x00, 0x00, 0x10, 0x00, 0x00, 0x00,
  0x15, 0x00, 0x00, 0x00, 0x28, 0x00, 0x00, 0x00, 0x58, 0xf8, 0xff, 0xff,
  0x1a, 0x00, 0x00, 0x00, 0x73, 0x65, 0x71, 0x75, 0x65, 0x6e, 0x74, 0x69,
  0x61, 0x6c, 0x2f, 0x66, 0x6c, 0x61, 0x74, 0x74, 0x65, 0x6e, 0x2f, 0x52,
  0x65, 0x73, 0x68, 0x61, 0x70, 0x65, 0x00, 0x00, 0x02, 0x00, 0x00, 0x00,
  0x01, 0x00, 0x00, 0x00, 0xd0, 0x00, 0x00, 0x00, 0xb6, 0xf8, 0xff, 0xff,
  0x00, 0x00, 0x00, 0x01, 0x10, 0x00, 0x00, 0x00, 0x10, 0x00, 0x00, 0x00,
  0x14, 0x00, 0x00, 0x00, 0x30, 0x00, 0x00, 0x00, 0xa0, 0xf8, 0xff, 0xff,
  0x22, 0x00, 0x00, 0x00, 0x73, 0x65, 0x71, 0x75, 0x65, 0x6e, 0x74, 0x69,
  0x61, 0x6c, 0x2f, 0x6d, 0x61, 0x78, 0x5f, 0x70, 0x6f, 0x6f, 0x6c, 0x69,
  0x6e, 0x67, 0x31, 0x64, 0x5f, 0x31, 0x2f, 0x4d, 0x61, 0x78, 0x50, 0x6f,
  0x6f, 0x6c, 0x00, 0x00, 0x04, 0x00, 0x00, 0x00, 0x01, 0x00, 0x00, 0x00,
  0x0d, 0x00, 0x00, 0x00, 0x01, 0x00, 0x00, 0x00, 0x10, 0x00, 0x00, 0x00,
  0x0e, 0xf9, 0xff, 0xff, 0x00, 0x00, 0x00, 0x01, 0x10, 0x00, 0x00, 0x00,
  0x10, 0x00, 0x00, 0x00, 0x13, 0x00, 0x00, 0x00, 0x34, 0x00, 0x00, 0x00,
  0xf8, 0xf8, 0xff, 0xff, 0x26, 0x00, 0x00, 0x00, 0x73, 0x65, 0x71, 0x75,
  0x65, 0x6e, 0x74, 0x69, 0x61, 0x6c, 0x2f, 0x6d, 0x61, 0x78, 0x5f, 0x70,
  0x6f, 0x6f, 0x6c, 0x69, 0x6e, 0x67, 0x31, 0x64, 0x5f, 0x31, 0x2f, 0x45,
  0x78, 0x70, 0x61, 0x6e, 0x64, 0x44, 0x69, 0x6d, 0x73, 0x31, 0x00, 0x00,
  0x04, 0x00, 0x00, 0x00, 0x01, 0x00, 0x00, 0x00, 0x19, 0x00, 0x00, 0x00,
  0x01, 0x00, 0x00, 0x00, 0x10, 0x00, 0x00, 0x00, 0x6a, 0xf9, 0xff, 0xff,
  0x00, 0x00, 0x00, 0x01, 0x10, 0x00, 0x00, 0x00, 0x10, 0x00, 0x00, 0x00,
  0x12, 0x00, 0x00, 0x00, 0xac, 0x00, 0x00, 0x00, 0x54, 0xf9, 0xff, 0xff,
  0x9d, 0x00, 0x00, 0x00, 0x73, 0x65, 0x71, 0x75, 0x65, 0x6e, 0x74, 0x69,
  0x61, 0x6c, 0x2f, 0x63, 0x6f, 0x6e, 0x76, 0x31, 0x64, 0x5f, 0x31, 0x2f,
  0x52, 0x65, 0x6c, 0x75, 0x3b, 0x73, 0x65, 0x71, 0x75, 0x65, 0x6e, 0x74,
  0x69, 0x61, 0x6c, 0x2f, 0x63, 0x6f, 0x6e, 0x76, 0x31, 0x64, 0x5f, 0x31,
  0x2f, 0x42, 0x69, 0x61, 0x73, 0x41, 0x64, 0x64, 0x3b, 0x73, 0x65, 0x71,
  0x75, 0x65, 0x6e, 0x74, 0x69, 0x61, 0x6c, 0x2f, 0x63, 0x6f, 0x6e, 0x76,
  0x31, 0x64, 0x5f, 0x31, 0x2f, 0x43, 0x6f, 0x6e, 0x76, 0x31, 0x44, 0x2f,
  0x53, 0x71, 0x75, 0x65, 0x65, 0x7a, 0x65, 0x3b, 0x73, 0x65, 0x71, 0x75,
  0x65, 0x6e, 0x74, 0x69, 0x61, 0x6c, 0x2f, 0x63, 0x6f, 0x6e, 0x76, 0x31,
  0x64, 0x5f, 0x31, 0x2f, 0x42, 0x69, 0x61, 0x73, 0x41, 0x64, 0x64, 0x2f,
  0x52, 0x65, 0x61, 0x64, 0x56, 0x61, 0x72, 0x69, 0x61, 0x62, 0x6c, 0x65,
  0x4f, 0x70, 0x3b, 0x73, 0x65, 0x71, 0x75, 0x65, 0x6e, 0x74, 0x69, 0x61,
  0x6c, 0x2f, 0x63, 0x6f, 0x6e, 0x76, 0x31, 0x64, 0x5f, 0x31, 0x2f, 0x43,
  0x6f, 0x6e, 0x76, 0x31, 0x44, 0x00, 0x00, 0x00, 0x04, 0x00, 0x00, 0x00,
  0x01, 0x00, 0x00, 0x00, 0x01, 0x00, 0x00, 0x00, 0x19, 0x00, 0x00, 0x00,
  0x10, 0x00, 0x00, 0x00, 0x3e, 0xfa, 0xff, 0xff, 0x00, 0x00, 0x00, 0x01,
  0x10, 0x00, 0x00, 0x00, 0x10, 0x00, 0x00, 0x00, 0x11, 0x00, 0x00, 0x00,
  0x34, 0x00, 0x00, 0x00, 0x28, 0xfa, 0xff, 0xff, 0x26, 0x00, 0x00, 0x00,
  0x73, 0x65, 0x71, 0x75, 0x65, 0x6e, 0x74, 0x69, 0x61, 0x6c, 0x2f, 0x63,
  0x6f, 0x6e, 0x76, 0x31, 0x64, 0x5f, 0x31, 0x2f, 0x43, 0x6f, 0x6e, 0x76,
  0x31, 0x44, 0x2f, 0x45, 0x78, 0x70, 0x61, 0x6e, 0x64, 0x44, 0x69, 0x6d,
  0x73, 0x31, 0x00, 0x00, 0x04, 0x00, 0x00, 0x00, 0x01, 0x00, 0x00, 0x00,
  0x01, 0x00, 0x00, 0x00, 0x19, 0x00, 0x00, 0x00, 0x08, 0x00, 0x00, 0x00,
  0x9a, 0xfa, 0xff, 0xff, 0x00, 0x00, 0x00, 0x01, 0x10, 0x00, 0x00, 0x00,
  0x10, 0x00, 0x00, 0x00, 0x10, 0x00, 0x00, 0x00, 0x30, 0x00, 0x00, 0x00,
  0x84, 0xfa, 0xff, 0xff, 0x20, 0x00, 0x00, 0x00, 0x73, 0x65, 0x71, 0x75,
  0x65, 0x6e, 0x74, 0x69, 0x61, 0x6c, 0x2f, 0x6d, 0x61, 0x78, 0x5f, 0x70,
  0x6f, 0x6f, 0x6c, 0x69, 0x6e, 0x67, 0x31, 0x64, 0x2f, 0x4d, 0x61, 0x78,
  0x50, 0x6f, 0x6f, 0x6c, 0x00, 0x00, 0x00, 0x00, 0x04, 0x00, 0x00, 0x00,
  0x01, 0x00, 0x00, 0x00, 0x19, 0x00, 0x00, 0x00, 0x01, 0x00, 0x00, 0x00,
  0x08, 0x00, 0x00, 0x00, 0xf2, 0xfa, 0xff, 0xff, 0x00, 0x00, 0x00, 0x01,
  0x10, 0x00, 0x00, 0x00, 0x10, 0x00, 0x00, 0x00, 0x0f, 0x00, 0x00, 0x00,
  0x34, 0x00, 0x00, 0x00, 0xdc, 0xfa, 0xff, 0xff, 0x24, 0x00, 0x00, 0x00,
  0x73, 0x65, 0x71, 0x75, 0x65, 0x6e, 0x74, 0x69, 0x61, 0x6c, 0x2f, 0x6d,
  0x61, 0x78, 0x5f, 0x70, 0x6f, 0x6f, 0x6c, 0x69, 0x6e, 0x67, 0x31, 0x64,
  0x2f, 0x45, 0x78, 0x70, 0x61, 0x6e, 0x64, 0x44, 0x69, 0x6d, 0x73, 0x31,
  0x00, 0x00, 0x00, 0x00, 0x04, 0x00, 0x00, 0x00, 0x01, 0x00, 0x00, 0x00,
  0x31, 0x00, 0x00, 0x00, 0x01, 0x00, 0x00, 0x00, 0x08, 0x00, 0x00, 0x00,
  0x4e, 0xfb, 0xff, 0xff, 0x00, 0x00, 0x00, 0x01, 0x10, 0x00, 0x00, 0x00,
  0x10, 0x00, 0x00, 0x00, 0x0e, 0x00, 0x00, 0x00, 0xa0, 0x00, 0x00, 0x00,
  0x38, 0xfb, 0xff, 0xff, 0x93, 0x00, 0x00, 0x00, 0x73, 0x65, 0x71, 0x75,
  0x65, 0x6e, 0x74, 0x69, 0x61, 0x6c, 0x2f, 0x63, 0x6f, 0x6e, 0x76, 0x31,
  0x64, 0x2f, 0x52, 0x65, 0x6c, 0x75, 0x3b, 0x73, 0x65, 0x71, 0x75, 0x65,
  0x6e, 0x74, 0x69, 0x61, 0x6c, 0x2f, 0x63, 0x6f, 0x6e, 0x76, 0x31, 0x64,
  0x2f, 0x42, 0x69, 0x61, 0x73, 0x41, 0x64, 0x64, 0x3b, 0x73, 0x65, 0x71,
  0x75, 0x65, 0x6e, 0x74, 0x69, 0x61, 0x6c, 0x2f, 0x63, 0x6f, 0x6e, 0x76,
  0x31, 0x64, 0x2f, 0x43, 0x6f, 0x6e, 0x76, 0x31, 0x44, 0x2f, 0x53, 0x71,
  0x75, 0x65, 0x65, 0x7a, 0x65, 0x3b, 0x73, 0x65, 0x71, 0x75, 0x65, 0x6e,
  0x74, 0x69, 0x61, 0x6c, 0x2f, 0x63, 0x6f, 0x6e, 0x76, 0x31, 0x64, 0x2f,
  0x42, 0x69, 0x61, 0x73, 0x41, 0x64, 0x64, 0x2f, 0x52, 0x65, 0x61, 0x64,
  0x56, 0x61, 0x72, 0x69, 0x61, 0x62, 0x6c, 0x65, 0x4f, 0x70, 0x3b, 0x73,
  0x65, 0x71, 0x75, 0x65, 0x6e, 0x74, 0x69, 0x61, 0x6c, 0x2f, 0x63, 0x6f,
  0x6e, 0x76, 0x31, 0x64, 0x2f, 0x43, 0x6f, 0x6e, 0x76, 0x31, 0x44, 0x00,
  0x04, 0x00, 0x00, 0x00, 0x01, 0x00, 0x00, 0x00, 0x01, 0x00, 0x00, 0x00,
  0x31, 0x00, 0x00, 0x00, 0x08, 0x00, 0x00, 0x00, 0x16, 0xfc, 0xff, 0xff,
  0x00, 0x00, 0x00, 0x01, 0x10, 0x00, 0x00, 0x00, 0x10, 0x00, 0x00, 0x00,
  0x0d, 0x00, 0x00, 0x00, 0x34, 0x00, 0x00, 0x00, 0x00, 0xfc, 0xff, 0xff,
  0x24, 0x00, 0x00, 0x00, 0x73, 0x65, 0x71, 0x75, 0x65, 0x6e, 0x74, 0x69,
  0x61, 0x6c, 0x2f, 0x63, 0x6f, 0x6e, 0x76, 0x31, 0x64, 0x2f, 0x43, 0x6f,
  0x6e, 0x76, 0x31, 0x44, 0x2f, 0x45, 0x78, 0x70, 0x61, 0x6e, 0x64, 0x44,
  0x69, 0x6d, 0x73, 0x31, 0x00, 0x00, 0x00, 0x00, 0x04, 0x00, 0x00, 0x00,
  0x01, 0x00, 0x00, 0x00, 0x01, 0x00, 0x00, 0x00, 0x31, 0x00, 0x00, 0x00,
  0x0d, 0x00, 0x00, 0x00, 0x72, 0xfc, 0xff, 0xff, 0x00, 0x00, 0x00, 0x01,
  0x10, 0x00, 0x00, 0x00, 0x10, 0x00, 0x00, 0x00, 0x0c, 0x00, 0x00, 0x00,
  0x28, 0x00, 0x00, 0x00, 0x5c, 0xfc, 0xff, 0xff, 0x18, 0x00, 0x00, 0x00,
  0x73, 0x65, 0x71, 0x75, 0x65, 0x6e, 0x74, 0x69, 0x61, 0x6c, 0x2f, 0x79,
  0x5f, 0x70, 0x72, 0x65, 0x64, 0x2f, 0x4d, 0x61, 0x74, 0x4d, 0x75, 0x6c,
  0x00, 0x00, 0x00, 0x00, 0x02, 0x00, 0x00, 0x00, 0x05, 0x00, 0x00, 0x00,
  0xd0, 0x00, 0x00, 0x00, 0xca, 0xfd, 0xff, 0xff, 0x00, 0x00, 0x00, 0x01,
  0x14, 0x00, 0x00, 0x00, 0x14, 0x00, 0x00, 0x00, 0x0b, 0x00, 0x00, 0x00,
  0x00, 0x00, 0x00, 0x02, 0x28, 0x00, 0x00, 0x00, 0xa8, 0xfc, 0xff, 0xff,
  0x18, 0x00, 0x00, 0x00, 0x73, 0x65, 0x71, 0x75, 0x65, 0x6e, 0x74, 0x69,
  0x61, 0x6c, 0x2f, 0x66, 0x6c, 0x61, 0x74, 0x74, 0x65, 0x6e, 0x2f, 0x43,
  0x6f, 0x6e, 0x73, 0x74, 0x00, 0x00, 0x00, 0x00, 0x01, 0x00, 0x00, 0x00,
  0x02, 0x00, 0x00, 0x00, 0x02, 0xfd, 0xff, 0xff, 0x00, 0x00, 0x00, 0x01,
  0x10, 0x00, 0x00, 0x00, 0x10, 0x00, 0x00, 0x00, 0x0a, 0x00, 0x00, 0x00,
  0x38, 0x00, 0x00, 0x00, 0xec, 0xfc, 0xff, 0xff, 0x28, 0x00, 0x00, 0x00,
  0x73, 0x65, 0x71, 0x75, 0x65, 0x6e, 0x74, 0x69, 0x61, 0x6c, 0x2f, 0x79,
  0x5f, 0x70, 0x72, 0x65, 0x64, 0x2f, 0x42, 0x69, 0x61, 0x73, 0x41, 0x64,
  0x64, 0x2f, 0x52, 0x65, 0x61, 0x64, 0x56, 0x61, 0x72, 0x69, 0x61, 0x62,
  0x6c, 0x65, 0x4f, 0x70, 0x00, 0x00, 0x00, 0x00, 0x01, 0x00, 0x00, 0x00,
  0x05, 0x00, 0x00, 0x00, 0x56, 0xfd, 0xff, 0xff, 0x00, 0x00, 0x00, 0x01,
  0x10, 0x00, 0x00, 0x00, 0x10, 0x00, 0x00, 0x00, 0x09, 0x00, 0x00, 0x00,
  0x28, 0x00, 0x00, 0x00, 0x40, 0xfd, 0xff, 0xff, 0x1a, 0x00, 0x00, 0x00,
  0x73, 0x65, 0x71, 0x75, 0x65, 0x6e, 0x74, 0x69, 0x61, 0x6c, 0x2f, 0x63,
  0x6f, 0x6e, 0x76, 0x31, 0x64, 0x5f, 0x31, 0x2f, 0x43, 0x6f, 0x6e, 0x76,
  0x31, 0x44, 0x00, 0x00, 0x04, 0x00, 0x00, 0x00, 0x10, 0x00, 0x00, 0x00,
  0x01, 0x00, 0x00, 0x00, 0x03, 0x00, 0x00, 0x00, 0x08, 0x00, 0x00, 0x00,
  0xa6, 0xfd, 0xff, 0xff, 0x00, 0x00, 0x00, 0x01, 0x10, 0x00, 0x00, 0x00,
  0x10, 0x00, 0x00, 0x00, 0x08, 0x00, 0x00, 0x00, 0x28, 0x00, 0x00, 0x00,
  0x90, 0xfd, 0xff, 0xff, 0x18, 0x00, 0x00, 0x00, 0x73, 0x65, 0x71, 0x75,
  0x65, 0x6e, 0x74, 0x69, 0x61, 0x6c, 0x2f, 0x63, 0x6f, 0x6e, 0x76, 0x31,
  0x64, 0x2f, 0x43, 0x6f, 0x6e, 0x76, 0x31, 0x44, 0x00, 0x00, 0x00, 0x00,
  0x04, 0x00, 0x00, 0x00, 0x08, 0x00, 0x00, 0x00, 0x01, 0x00, 0x00, 0x00,
  0x03, 0x00, 0x00, 0x00, 0x0d, 0x00, 0x00, 0x00, 0x06, 0xff, 0xff, 0xff,
  0x00, 0x00, 0x00, 0x01, 0x14, 0x00, 0x00, 0x00, 0x14, 0x00, 0x00, 0x00,
  0x07, 0x00, 0x00, 0x00, 0x00, 0x00, 0x00, 0x02, 0x34, 0x00, 0x00, 0x00,
  0xe4, 0xfd, 0xff, 0xff, 0x25, 0x00, 0x00, 0x00, 0x73, 0x65, 0x71, 0x75,
  0x65, 0x6e, 0x74, 0x69, 0x61, 0x6c, 0x2f, 0x6d, 0x61, 0x78, 0x5f, 0x70,
  0x6f, 0x6f, 0x6c, 0x69, 0x6e, 0x67, 0x31, 0x64, 0x5f, 0x31, 0x2f, 0x45,
  0x78, 0x70, 0x61, 0x6e, 0x64, 0x44, 0x69, 0x6d, 0x73, 0x00, 0x00, 0x00,
  0x01, 0x00, 0x00, 0x00, 0x04, 0x00, 0x00, 0x00, 0x5a, 0xff, 0xff, 0xff,
  0x00, 0x00, 0x00, 0x01, 0x14, 0x00, 0x00, 0x00, 0x14, 0x00, 0x00, 0x00,
  0x06, 0x00, 0x00, 0x00, 0x00, 0x00, 0x00, 0x02, 0x34, 0x00, 0x00, 0x00,
  0x38, 0xfe, 0xff, 0xff, 0x25, 0x00, 0x00, 0x00, 0x73, 0x65, 0x71, 0x75,
  0x65, 0x6e, 0x74, 0x69, 0x61, 0x6c, 0x2f, 0x63, 0x6f, 0x6e, 0x76, 0x31,
  0x64, 0x5f, 0x31, 0x2f, 0x43, 0x6f, 0x6e, 0x76, 0x31, 0x44, 0x2f, 0x45,
  0x78, 0x70, 0x61, 0x6e, 0x64, 0x44, 0x69, 0x6d, 0x73, 0x00, 0x00, 0x00,
  0x01, 0x00, 0x00, 0x00, 0x04, 0x00, 0x00, 0x00, 0xae, 0xff, 0xff, 0xff,
  0x00, 0x00, 0x00, 0x01, 0x14, 0x00, 0x00, 0x00, 0x14, 0x00, 0x00, 0x00,
  0x05, 0x00, 0x00, 0x00, 0x00, 0x00, 0x00, 0x02, 0x30, 0x00, 0x00, 0x00,
  0x8c, 0xfe, 0xff, 0xff, 0x23, 0x00, 0x00, 0x00, 0x73, 0x65, 0x71, 0x75,
  0x65, 0x6e, 0x74, 0x69, 0x61, 0x6c, 0x2f, 0x6d, 0x61, 0x78, 0x5f, 0x70,
  0x6f, 0x6f, 0x6c, 0x69, 0x6e, 0x67, 0x31, 0x64, 0x2f, 0x45, 0x78, 0x70,
  0x61, 0x6e, 0x64, 0x44, 0x69, 0x6d, 0x73, 0x00, 0x01, 0x00, 0x00, 0x00,
  0x04, 0x00, 0x00, 0x00, 0x00, 0x00, 0x16, 0x00, 0x1c, 0x00, 0x18, 0x00,
  0x17, 0x00, 0x10, 0x00, 0x0c, 0x00, 0x08, 0x00, 0x00, 0x00, 0x00, 0x00,
  0x00, 0x00, 0x07, 0x00, 0x16, 0x00, 0x00, 0x00, 0x00, 0x00, 0x00, 0x01,
  0x14, 0x00, 0x00, 0x00, 0x14, 0x00, 0x00, 0x00, 0x04, 0x00, 0x00, 0x00,
  0x00, 0x00, 0x00, 0x02, 0x30, 0x00, 0x00, 0x00, 0xf4, 0xfe, 0xff, 0xff,
  0x23, 0x00, 0x00, 0x00, 0x73, 0x65, 0x71, 0x75, 0x65, 0x6e, 0x74, 0x69,
  0x61, 0x6c, 0x2f, 0x63, 0x6f, 0x6e, 0x76, 0x31, 0x64, 0x2f, 0x43, 0x6f,
  0x6e, 0x76, 0x31, 0x44, 0x2f, 0x45, 0x78, 0x70, 0x61, 0x6e, 0x64, 0x44,
  0x69, 0x6d, 0x73, 0x00, 0x01, 0x00, 0x00, 0x00, 0x04, 0x00, 0x00, 0x00,
  0x56, 0xff, 0xff, 0xff, 0x00, 0x00, 0x00, 0x01, 0x10, 0x00, 0x00, 0x00,
  0x10, 0x00, 0x00, 0x00, 0x03, 0x00, 0x00, 0x00, 0x38, 0x00, 0x00, 0x00,
  0x40, 0xff, 0xff, 0xff, 0x2a, 0x00, 0x00, 0x00, 0x73, 0x65, 0x71, 0x75,
  0x65, 0x6e, 0x74, 0x69, 0x61, 0x6c, 0x2f, 0x63, 0x6f, 0x6e, 0x76, 0x31,
  0x64, 0x5f, 0x31, 0x2f, 0x42, 0x69, 0x61, 0x73, 0x41, 0x64, 0x64, 0x2f,
  0x52, 0x65, 0x61, 0x64, 0x56, 0x61, 0x72, 0x69, 0x61, 0x62, 0x6c, 0x65,
  0x4f, 0x70, 0x00, 0x00, 0x01, 0x00, 0x00, 0x00, 0x10, 0x00, 0x00, 0x00,
  0xaa, 0xff, 0xff, 0xff, 0x00, 0x00, 0x00, 0x01, 0x10, 0x00, 0x00, 0x00,
  0x10, 0x00, 0x00, 0x00, 0x02, 0x00, 0x00, 0x00, 0x38, 0x00, 0x00, 0x00,
  0x94, 0xff, 0xff, 0xff, 0x28, 0x00, 0x00, 0x00, 0x73, 0x65, 0x71, 0x75,
  0x65, 0x6e, 0x74, 0x69, 0x61, 0x6c, 0x2f, 0x63, 0x6f, 0x6e, 0x76, 0x31,
  0x64, 0x2f, 0x42, 0x69, 0x61, 0x73, 0x41, 0x64, 0x64, 0x2f, 0x52, 0x65,
  0x61, 0x64, 0x56, 0x61, 0x72, 0x69, 0x61, 0x62, 0x6c, 0x65, 0x4f, 0x70,
  0x00, 0x00, 0x00, 0x00, 0x01, 0x00, 0x00, 0x00, 0x08, 0x00, 0x00, 0x00,
  0x00, 0x00, 0x16, 0x00, 0x18, 0x00, 0x14, 0x00, 0x00, 0x00, 0x10, 0x00,
  0x0c, 0x00, 0x08, 0x00, 0x00, 0x00, 0x00, 0x00, 0x00, 0x00, 0x07, 0x00,
  0x16, 0x00, 0x00, 0x00, 0x00, 0x00, 0x00, 0x01, 0x14, 0x00, 0x00, 0x00,
  0x14, 0x00, 0x00, 0x00, 0x01, 0x00, 0x00, 0x00, 0x24, 0x00, 0x00, 0x00,
  0x04, 0x00, 0x04, 0x00, 0x04, 0x00, 0x00, 0x00, 0x13, 0x00, 0x00, 0x00,
  0x73, 0x65, 0x72, 0x76, 0x69, 0x6e, 0x67, 0x5f, 0x64, 0x65, 0x66, 0x61,
  0x75, 0x6c, 0x74, 0x5f, 0x78, 0x3a, 0x30, 0x00, 0x02, 0x00, 0x00, 0x00,
  0x01, 0x00, 0x00, 0x00, 0x7d, 0x02, 0x00, 0x00, 0x05, 0x00, 0x00, 0x00,
  0x50, 0x00, 0x00, 0x00, 0x34, 0x00, 0x00, 0x00, 0x24, 0x00, 0x00, 0x00,
  0x14, 0x00, 0x00, 0x00, 0x04, 0x00, 0x00, 0x00, 0xd0, 0xff, 0xff, 0xff,
  0x19, 0x00, 0x00, 0x00, 0x00, 0x00, 0x00, 0x19, 0xdc, 0xff, 0xff, 0xff,
  0x09, 0x00, 0x00, 0x00, 0x00, 0x00, 0x00, 0x09, 0xe8, 0xff, 0xff, 0xff,
  0x11, 0x00, 0x00, 0x00, 0x00, 0x00, 0x00, 0x11, 0xf4, 0xff, 0xff, 0xff,
  0x03, 0x00, 0x00, 0x00, 0x00, 0x00, 0x00, 0x03, 0x0c, 0x00, 0x0c, 0x00,
  0x0b, 0x00, 0x00, 0x00, 0x00, 0x00, 0x04, 0x00, 0x0c, 0x00, 0x00, 0x00,
  0x16, 0x00, 0x00, 0x00, 0x00, 0x00, 0x00, 0x16
};
unsigned int tflite_learn_14_len = 10928;
#endif // _EI_CLASSIFIER_TFLITE_LEARN_14_H_
