/* Generated by Edge Impulse
 *
 * Permission is hereby granted, free of charge, to any person obtaining a copy
 * of this software and associated documentation files (the "Software"), to deal
 * in the Software without restriction, including without limitation the rights
 * to use, copy, modify, merge, publish, distribute, sublicense, and/or sell
 * copies of the Software, and to permit persons to whom the Software is
 * furnished to do so, subject to the following conditions:
 *
 * The above copyright notice and this permission notice shall be included in
 * all copies or substantial portions of the Software.
 *
 * THE SOFTWARE IS PROVIDED "AS IS", WITHOUT WARRANTY OF ANY KIND, EXPRESS OR
 * IMPLIED, INCLUDING BUT NOT LIMITED TO THE WARRANTIES OF MERCHANTABILITY,
 * FITNESS FOR A PARTICULAR PURPOSE AND NONINFRINGEMENT. IN NO EVENT SHALL THE
 * AUTHORS OR COPYRIGHT HOLDERS BE LIABLE FOR ANY CLAIM, DAMAGES OR OTHER
 * LIABILITY, WHETHER IN AN ACTION OF CONTRACT, TORT OR OTHERWISE, ARISING FROM,
 * OUT OF OR IN CONNECTION WITH THE SOFTWARE OR THE USE OR OTHER DEALINGS IN THE
 * SOFTWARE.
 */

#ifndef _EI_CLASSIFIER_TFLITE_LEARN_6_H_
#define _EI_CLASSIFIER_TFLITE_LEARN_6_H_

#define EI_CLASSIFIER_TFLITE_LEARN_6_ARENA_SIZE     6227
const size_t tflite_learn_6_arena_size = 6227;

#ifdef EI_CLASSIFIER_TFLITE_ARENA_SIZE
#if EI_CLASSIFIER_TFLITE_ARENA_SIZE < EI_CLASSIFIER_TFLITE_LEARN_6_ARENA_SIZE
#undef EI_CLASSIFIER_TFLITE_ARENA_SIZE
#define EI_CLASSIFIER_TFLITE_ARENA_SIZE EI_CLASSIFIER_TFLITE_LEARN_6_ARENA_SIZE
#endif // #if EI_CLASSIFIER_TFLITE_ARENA_SIZE < EI_CLASSIFIER_TFLITE_LEARN_6_ARENA_SIZE
#else
#define EI_CLASSIFIER_TFLITE_ARENA_SIZE EI_CLASSIFIER_TFLITE_LEARN_6_ARENA_SIZE
#endif // #ifdef EI_CLASSIFIER_TFLITE_ARENA_SIZE

#if defined __GNUC__
#define ALIGN(X) __attribute__((aligned(X)))
#elif defined _MSC_VER
#define ALIGN(X) __declspec(align(X))
#elif defined __TASKING__
#define ALIGN(X) __align(X)
#else
#define ALIGN(X)
#endif

ALIGN(16) const unsigned char tflite_learn_6[] = {
  0x20, 0x00, 0x00, 0x00, 0x54, 0x46, 0x4c, 0x33, 0x00, 0x00, 0x00, 0x00,
  0x14, 0x00, 0x20, 0x00, 0x1c, 0x00, 0x18, 0x00, 0x14, 0x00, 0x10, 0x00,
  0x0c, 0x00, 0x00, 0x00, 0x08, 0x00, 0x04, 0x00, 0x14, 0x00, 0x00, 0x00,
  0x1c, 0x00, 0x00, 0x00, 0x8c, 0x00, 0x00, 0x00, 0xe4, 0x00, 0x00, 0x00,
  0x08, 0x0a, 0x00, 0x00, 0x18, 0x0a, 0x00, 0x00, 0x24, 0x1a, 0x00, 0x00,
  0x03, 0x00, 0x00, 0x00, 0x01, 0x00, 0x00, 0x00, 0x10, 0x00, 0x00, 0x00,
  0x00, 0x00, 0x0a, 0x00, 0x10, 0x00, 0x0c, 0x00, 0x08, 0x00, 0x04, 0x00,
  0x0a, 0x00, 0x00, 0x00, 0x0c, 0x00, 0x00, 0x00, 0x1c, 0x00, 0x00, 0x00,
  0x3c, 0x00, 0x00, 0x00, 0x0f, 0x00, 0x00, 0x00, 0x73, 0x65, 0x72, 0x76,
  0x69, 0x6e, 0x67, 0x5f, 0x64, 0x65, 0x66, 0x61, 0x75, 0x6c, 0x74, 0x00,
  0x01, 0x00, 0x00, 0x00, 0x04, 0x00, 0x00, 0x00, 0x9c, 0xff, 0xff, 0xff,
  0x16, 0x00, 0x00, 0x00, 0x04, 0x00, 0x00, 0x00, 0x08, 0x00, 0x00, 0x00,
  0x6f, 0x75, 0x74, 0x70, 0x75, 0x74, 0x5f, 0x30, 0x00, 0x00, 0x00, 0x00,
  0x01, 0x00, 0x00, 0x00, 0x04, 0x00, 0x00, 0x00, 0xd2, 0xf5, 0xff, 0xff,
  0x04, 0x00, 0x00, 0x00, 0x01, 0x00, 0x00, 0x00, 0x78, 0x00, 0x00, 0x00,
  0x02, 0x00, 0x00, 0x00, 0x34, 0x00, 0x00, 0x00, 0x04, 0x00, 0x00, 0x00,
  0xdc, 0xff, 0xff, 0xff, 0x19, 0x00, 0x00, 0x00, 0x04, 0x00, 0x00, 0x00,
  0x13, 0x00, 0x00, 0x00, 0x43, 0x4f, 0x4e, 0x56, 0x45, 0x52, 0x53, 0x49,
  0x4f, 0x4e, 0x5f, 0x4d, 0x45, 0x54, 0x41, 0x44, 0x41, 0x54, 0x41, 0x00,
  0x08, 0x00, 0x0c, 0x00, 0x08, 0x00, 0x04, 0x00, 0x08, 0x00, 0x00, 0x00,
  0x18, 0x00, 0x00, 0x00, 0x04, 0x00, 0x00, 0x00, 0x13, 0x00, 0x00, 0x00,
  0x6d, 0x69, 0x6e, 0x5f, 0x72, 0x75, 0x6e, 0x74, 0x69, 0x6d, 0x65, 0x5f,
  0x76, 0x65, 0x72, 0x73, 0x69, 0x6f, 0x6e, 0x00, 0x1a, 0x00, 0x00, 0x00,
  0x20, 0x09, 0x00, 0x00, 0x18, 0x09, 0x00, 0x00, 0xf8, 0x08, 0x00, 0x00,
  0xd8, 0x08, 0x00, 0x00, 0xb8, 0x08, 0x00, 0x00, 0x98, 0x08, 0x00, 0x00,
  0x80, 0x08, 0x00, 0x00, 0x5c, 0x08, 0x00, 0x00, 0x3c, 0x04, 0x00, 0x00,
  0xec, 0x03, 0x00, 0x00, 0x5c, 0x02, 0x00, 0x00, 0x2c, 0x02, 0x00, 0x00,
  0xe4, 0x00, 0x00, 0x00, 0xdc, 0x00, 0x00, 0x00, 0xd4, 0x00, 0x00, 0x00,
  0xcc, 0x00, 0x00, 0x00, 0xc4, 0x00, 0x00, 0x00, 0xbc, 0x00, 0x00, 0x00,
  0xb4, 0x00, 0x00, 0x00, 0xac, 0x00, 0x00, 0x00, 0xa4, 0x00, 0x00, 0x00,
  0x9c, 0x00, 0x00, 0x00, 0x94, 0x00, 0x00, 0x00, 0x8c, 0x00, 0x00, 0x00,
  0x6c, 0x00, 0x00, 0x00, 0x04, 0x00, 0x00, 0x00, 0xaa, 0xf6, 0xff, 0xff,
  0x04, 0x00, 0x00, 0x00, 0x58, 0x00, 0x00, 0x00, 0x0c, 0x00, 0x00, 0x00,
  0x08, 0x00, 0x0e, 0x00, 0x08, 0x00, 0x04, 0x00, 0x08, 0x00, 0x00, 0x00,
  0x10, 0x00, 0x00, 0x00, 0x28, 0x00, 0x00, 0x00, 0x00, 0x00, 0x06, 0x00,
  0x08, 0x00, 0x04, 0x00, 0x06, 0x00, 0x00, 0x00, 0x04, 0x00, 0x00, 0x00,
  0x01, 0x00, 0x00, 0x00, 0xeb, 0x03, 0x00, 0x00, 0x00, 0x00, 0x0a, 0x00,
  0x10, 0x00, 0x0c, 0x00, 0x08, 0x00, 0x04, 0x00, 0x0a, 0x00, 0x00, 0x00,
  0x03, 0x00, 0x00, 0x00, 0x02, 0x00, 0x00, 0x00, 0x04, 0x00, 0x00, 0x00,
  0x06, 0x00, 0x00, 0x00, 0x32, 0x2e, 0x31, 0x31, 0x2e, 0x31, 0x00, 0x00,
  0x0e, 0xf7, 0xff, 0xff, 0x04, 0x00, 0x00, 0x00, 0x10, 0x00, 0x00, 0x00,
  0x31, 0x2e, 0x31, 0x34, 0x2e, 0x30, 0x00, 0x00, 0x00, 0x00, 0x00, 0x00,
  0x00, 0x00, 0x00, 0x00, 0x5c, 0xe8, 0xff, 0xff, 0x60, 0xe8, 0xff, 0xff,
  0x64, 0xe8, 0xff, 0xff, 0x68, 0xe8, 0xff, 0xff, 0x6c, 0xe8, 0xff, 0xff,
  0x70, 0xe8, 0xff, 0xff, 0x74, 0xe8, 0xff, 0xff, 0x78, 0xe8, 0xff, 0xff,
  0x7c, 0xe8, 0xff, 0xff, 0x80, 0xe8, 0xff, 0xff, 0x84, 0xe8, 0xff, 0xff,
  0x56, 0xf7, 0xff, 0xff, 0x04, 0x00, 0x00, 0x00, 0x38, 0x01, 0x00, 0x00,
  0x74, 0x7f, 0xf9, 0x1a, 0xda, 0x2a, 0x1f, 0x0e, 0x18, 0xc7, 0x23, 0xc5,
  0xe6, 0xf0, 0x08, 0x2e, 0xe8, 0x30, 0x3d, 0xd6, 0x37, 0xd7, 0x27, 0xbd,
  0x49, 0x18, 0xdd, 0xc7, 0x31, 0x08, 0x17, 0x50, 0x01, 0x40, 0x15, 0x55,
  0x0a, 0xfc, 0x2a, 0x83, 0xca, 0xc9, 0xea, 0xca, 0xc4, 0xdf, 0xd8, 0xe1,
  0xe2, 0xe3, 0xce, 0x1a, 0x8d, 0x0f, 0x07, 0xf4, 0x0f, 0x0a, 0x12, 0x26,
  0x01, 0x15, 0x2c, 0x17, 0xfc, 0xc6, 0xc8, 0xfc, 0xec, 0xd0, 0x81, 0xd3,
  0x0b, 0xfb, 0xf0, 0x0e, 0xf4, 0xeb, 0x6a, 0xba, 0xec, 0xdf, 0x2e, 0xd0,
  0x1b, 0xfd, 0x39, 0x59, 0x0c, 0xf0, 0xee, 0x20, 0xd4, 0xee, 0xd8, 0xfd,
  0x0c, 0xec, 0x03, 0x09, 0x21, 0x12, 0xf5, 0xd3, 0x66, 0x7f, 0xc1, 0xd3,
  0xee, 0xec, 0x4a, 0xee, 0xe5, 0x12, 0x35, 0xf3, 0xad, 0xa5, 0x99, 0xdc,
  0xd6, 0x32, 0x81, 0x3f, 0x19, 0x0c, 0xf7, 0xc7, 0xba, 0xa7, 0x3a, 0xd0,
  0xde, 0x50, 0x05, 0xdd, 0x19, 0xe8, 0x24, 0xeb, 0xf8, 0xe8, 0xfe, 0x6f,
  0x47, 0x77, 0x6f, 0x25, 0x1b, 0x71, 0x64, 0x0b, 0xc6, 0x89, 0xb0, 0xaf,
  0xd2, 0x7f, 0x18, 0x4d, 0x0f, 0x08, 0xed, 0x00, 0x91, 0x81, 0xe0, 0x0b,
  0xfd, 0x3a, 0x19, 0xf5, 0xf4, 0xb3, 0xf6, 0x03, 0xe6, 0xe2, 0xbd, 0xf9,
  0x4c, 0x41, 0x01, 0xb9, 0xfc, 0xe1, 0xb9, 0x21, 0xc6, 0xac, 0x45, 0x0e,
  0x36, 0x0b, 0x29, 0x81, 0x2a, 0x21, 0x02, 0xe4, 0xf8, 0xe4, 0x0d, 0x15,
  0x05, 0x0e, 0xfd, 0x02, 0x2e, 0xec, 0xe8, 0xf0, 0xfd, 0x04, 0x01, 0xf7,
  0xf7, 0xf5, 0xeb, 0xf4, 0xee, 0x45, 0x12, 0xed, 0x22, 0x36, 0x1a, 0x12,
  0x1e, 0x0e, 0x17, 0x00, 0x1b, 0x1e, 0x46, 0x7f, 0x37, 0x3d, 0xf0, 0xeb,
  0xec, 0x2b, 0x19, 0xe1, 0xd9, 0xea, 0xe2, 0xfc, 0x6e, 0x44, 0xfd, 0x56,
  0xe7, 0x2a, 0x07, 0xd6, 0xeb, 0xe9, 0xd0, 0x32, 0x7d, 0x5b, 0x04, 0xe1,
  0xaf, 0xe7, 0x43, 0xc7, 0xc4, 0xd7, 0x9c, 0x23, 0x17, 0x52, 0x34, 0x21,
  0x3a, 0x1a, 0xb5, 0x81, 0xa7, 0xf4, 0x0a, 0x54, 0xbd, 0x27, 0x94, 0xcb,
  0x0b, 0xf7, 0x00, 0xbd, 0xbd, 0x22, 0x06, 0x21, 0x44, 0x18, 0x17, 0x36,
  0x43, 0x37, 0x47, 0xcf, 0x9b, 0x10, 0x5d, 0x6a, 0xe9, 0xae, 0x1b, 0xf9,
  0x9a, 0xf8, 0xff, 0xff, 0x04, 0x00, 0x00, 0x00, 0x20, 0x00, 0x00, 0x00,
  0x86, 0xfa, 0xff, 0xff, 0x75, 0xfc, 0xff, 0xff, 0x7d, 0xee, 0xff, 0xff,
  0x7f, 0xe9, 0xff, 0xff, 0x3a, 0xef, 0xff, 0xff, 0x65, 0xfd, 0xff, 0xff,
  0xf0, 0xed, 0xff, 0xff, 0x5f, 0xee, 0xff, 0xff, 0xc6, 0xf8, 0xff, 0xff,
  0x04, 0x00, 0x00, 0x00, 0x80, 0x01, 0x00, 0x00, 0xb2, 0xf5, 0xe7, 0x09,
  0xc0, 0xf6, 0x04, 0xf1, 0xc1, 0x3a, 0xf9, 0xef, 0x9a, 0xeb, 0x6b, 0xdd,
  0xad, 0x15, 0xf8, 0x54, 0x81, 0xb2, 0xc0, 0xc4, 0xe7, 0x00, 0xb0, 0x03,
  0xf8, 0x14, 0xf0, 0x17, 0xdf, 0x04, 0xf7, 0xec, 0x3e, 0x11, 0xf3, 0x01,
  0x06, 0x00, 0x10, 0xeb, 0xe5, 0x81, 0x9a, 0x1f, 0xfc, 0x97, 0x1e, 0xf4,
  0xf0, 0xc6, 0x2b, 0x11, 0xfa, 0x81, 0x03, 0xe5, 0xf3, 0xd7, 0x05, 0x19,
  0xe3, 0x9d, 0x11, 0xfb, 0xde, 0xda, 0x44, 0x2d, 0x17, 0x9b, 0x12, 0xc3,
  0x37, 0xa8, 0x26, 0x2a, 0x1f, 0x8e, 0x19, 0xe9, 0xc5, 0xbd, 0xc9, 0x17,
  0x0d, 0x81, 0x0b, 0x1e, 0xfd, 0xca, 0x25, 0x37, 0x2c, 0xd9, 0x00, 0x81,
  0xd5, 0x28, 0xd8, 0x8c, 0xff, 0xe4, 0xad, 0xb2, 0xdf, 0x2a, 0xb6, 0x8c,
  0x46, 0x1e, 0x50, 0x99, 0xdf, 0x17, 0xdd, 0xa2, 0xc6, 0x7f, 0x02, 0xf0,
  0x08, 0x0b, 0x28, 0xf2, 0xce, 0x04, 0xfa, 0xe0, 0xf8, 0x08, 0x23, 0xee,
  0xc3, 0x76, 0x09, 0xff, 0xe0, 0x06, 0x0b, 0x01, 0x14, 0xf8, 0x74, 0xd2,
  0xdb, 0xd4, 0xc7, 0xf3, 0xec, 0xa3, 0xcb, 0xc9, 0x9a, 0xf7, 0xf6, 0xcb,
  0x5f, 0xe2, 0xbe, 0xf0, 0x81, 0xed, 0xc4, 0xb2, 0xd8, 0x1a, 0xed, 0xaa,
  0xcf, 0x34, 0xea, 0xfe, 0xe2, 0xe0, 0x06, 0x62, 0xfe, 0x7f, 0x24, 0xf8,
  0xe9, 0xc1, 0x02, 0xed, 0x0f, 0x11, 0xf7, 0x03, 0xe0, 0xa0, 0xf9, 0x44,
  0xd9, 0xbd, 0x4d, 0xde, 0xad, 0xb7, 0x01, 0x37, 0x1c, 0x9d, 0x01, 0xe5,
  0xf5, 0x81, 0x0f, 0xfe, 0x25, 0xd3, 0xfb, 0xdd, 0xfe, 0xd8, 0x1c, 0x61,
  0xeb, 0x7f, 0xc8, 0x34, 0x0d, 0x20, 0x12, 0x0b, 0xf2, 0x97, 0xd1, 0xd8,
  0x08, 0x21, 0x01, 0x1c, 0xec, 0x16, 0xd2, 0x04, 0xdd, 0xf0, 0xe5, 0x7f,
  0x05, 0xe7, 0xe7, 0x03, 0xc2, 0xef, 0xd0, 0xdb, 0xe2, 0xd9, 0xcb, 0x0e,
  0x06, 0x47, 0xe0, 0x12, 0xdd, 0x66, 0xca, 0xf0, 0xbb, 0xc7, 0xf9, 0x69,
  0xf7, 0xe6, 0x01, 0xc9, 0x99, 0xe0, 0x05, 0xcd, 0x36, 0xe0, 0x04, 0xde,
  0x03, 0xb4, 0x08, 0xee, 0xec, 0x81, 0xc7, 0xd0, 0xc7, 0x0d, 0x9e, 0xf9,
  0xa8, 0xf9, 0xbe, 0xad, 0xf3, 0xf9, 0xbc, 0xfa, 0xb0, 0xf4, 0x81, 0xaf,
  0x13, 0x0d, 0xeb, 0xf0, 0xca, 0xeb, 0x90, 0xb6, 0x0a, 0xf1, 0xa8, 0x02,
  0x81, 0x05, 0xd5, 0xa0, 0xd3, 0xf8, 0xda, 0xeb, 0xd4, 0x28, 0x4b, 0xd6,
  0xc6, 0xdf, 0x08, 0xd3, 0x73, 0xd9, 0xe4, 0x0c, 0xf2, 0x11, 0x36, 0xca,
  0xf3, 0xef, 0xf0, 0xa5, 0xdb, 0x2a, 0xfb, 0xee, 0xdf, 0xc5, 0xf7, 0x81,
  0x0a, 0xdc, 0x30, 0x06, 0xf3, 0x86, 0x01, 0xaa, 0xf0, 0x14, 0x9b, 0xbb,
  0x19, 0x9a, 0xb2, 0x4f, 0xcf, 0xe2, 0xf1, 0xb2, 0xf7, 0xbd, 0x96, 0xed,
  0xf0, 0xbf, 0x7f, 0xaa, 0xdd, 0xa0, 0xc5, 0xed, 0x52, 0xfa, 0xff, 0xff,
  0x04, 0x00, 0x00, 0x00, 0x40, 0x00, 0x00, 0x00, 0x0f, 0x02, 0x00, 0x00,
  0x0c, 0xfc, 0xff, 0xff, 0xcb, 0xf2, 0xff, 0xff, 0x60, 0xfa, 0xff, 0xff,
  0xaf, 0xfb, 0xff, 0xff, 0x5a, 0xf8, 0xff, 0xff, 0x07, 0xfa, 0xff, 0xff,
  0xe8, 0xf7, 0xff, 0xff, 0x3b, 0xfb, 0xff, 0xff, 0x22, 0xf4, 0xff, 0xff,
  0x67, 0xf9, 0xff, 0xff, 0xe3, 0xfd, 0xff, 0xff, 0x0c, 0x0a, 0x00, 0x00,
  0xd9, 0x03, 0x00, 0x00, 0x16, 0xfa, 0xff, 0xff, 0x6d, 0xf8, 0xff, 0xff,
  0x9e, 0xfa, 0xff, 0xff, 0x04, 0x00, 0x00, 0x00, 0x10, 0x04, 0x00, 0x00,
  0xf6, 0xf5, 0xe0, 0xe7, 0xea, 0xf7, 0xf6, 0xd3, 0x11, 0xd4, 0xd5, 0x0b,
  0x0a, 0x14, 0xd4, 0xa4, 0x13, 0x1e, 0xff, 0x15, 0xf7, 0xe7, 0xd1, 0xfb,
  0x12, 0xcf, 0xce, 0x30, 0x05, 0x12, 0xda, 0xd5, 0x02, 0x31, 0xfe, 0xff,
  0xd3, 0xd7, 0xea, 0x07, 0x1b, 0xcc, 0xd4, 0x34, 0x00, 0x1b, 0xe9, 0xcf,
  0xff, 0x22, 0x08, 0x17, 0xe0, 0xe0, 0xfd, 0x08, 0x19, 0xbf, 0xd5, 0x45,
  0xed, 0x29, 0xd4, 0xf5, 0xf4, 0x0c, 0xf6, 0x1e, 0xcc, 0xd1, 0x03, 0x13,
  0x1e, 0xd7, 0xca, 0x24, 0xd1, 0x23, 0xcd, 0xf5, 0xf8, 0x0e, 0x04, 0x0f,
  0xde, 0xe1, 0x05, 0x21, 0x16, 0xf1, 0xe1, 0x05, 0xe7, 0x20, 0xd4, 0xfc,
  0xcd, 0x16, 0xfe, 0x13, 0xd3, 0xf1, 0x0b, 0x08, 0xf3, 0x02, 0xed, 0x0f,
  0x09, 0x1c, 0xe5, 0x16, 0xd7, 0x0a, 0x11, 0x19, 0x03, 0xf2, 0x2c, 0x15,
  0xfa, 0x14, 0xe1, 0x09, 0xd3, 0x1b, 0xef, 0x08, 0xe6, 0x1b, 0x03, 0x10,
  0xfa, 0xe3, 0x12, 0x06, 0xf6, 0x14, 0xf6, 0xf1, 0xf3, 0x19, 0xf9, 0x1a,
  0xfa, 0x16, 0x06, 0x06, 0xfb, 0xf4, 0x24, 0xfa, 0xfe, 0x0a, 0xee, 0x12,
  0xed, 0x3a, 0x19, 0x21, 0x03, 0xf7, 0x1a, 0x06, 0xe6, 0x01, 0x1e, 0xd6,
  0xf0, 0xf0, 0xe2, 0x0b, 0x02, 0x20, 0xfe, 0x16, 0xe3, 0x33, 0xfc, 0xee,
  0xe6, 0xeb, 0x25, 0xe4, 0xe0, 0xe3, 0xdb, 0xef, 0x04, 0xff, 0x03, 0x01,
  0x05, 0x28, 0x14, 0x05, 0xf4, 0x03, 0xe3, 0xe4, 0xf0, 0xf9, 0xd8, 0xfc,
  0x0d, 0xec, 0xe1, 0x1e, 0x1a, 0x13, 0xe2, 0x18, 0xe0, 0x1a, 0x19, 0x24,
  0x1f, 0x36, 0x15, 0x20, 0xdb, 0x14, 0xe7, 0x0f, 0x00, 0x1e, 0x0b, 0x00,
  0xea, 0x12, 0x06, 0x1b, 0xf1, 0x1b, 0x1f, 0xe3, 0xcc, 0x02, 0xdd, 0x09,
  0xf6, 0x0c, 0xef, 0xff, 0xf8, 0x09, 0xed, 0x0b, 0x0a, 0x0f, 0x0d, 0xfb,
  0xb7, 0x09, 0x01, 0xe7, 0x08, 0x05, 0xbf, 0xdf, 0xdf, 0x24, 0xe1, 0x12,
  0xf8, 0x10, 0x14, 0xf4, 0xcc, 0xf8, 0x06, 0xd3, 0x06, 0xef, 0xcc, 0xdd,
  0xe2, 0x18, 0xee, 0x15, 0xef, 0x10, 0x0b, 0xf1, 0xd6, 0xd7, 0xf5, 0xf5,
  0xff, 0xe0, 0xf4, 0xd7, 0x08, 0x0e, 0xdd, 0x21, 0xe9, 0x07, 0x14, 0xc3,
  0xfc, 0xf2, 0xec, 0xe4, 0x0a, 0xf9, 0xe4, 0xc5, 0xfc, 0x0f, 0xf9, 0x18,
  0xf1, 0x0d, 0x14, 0xe5, 0xde, 0xea, 0x0b, 0xde, 0x03, 0xdc, 0xeb, 0xd3,
  0xff, 0x15, 0xe7, 0x1c, 0x03, 0x1d, 0x16, 0xe7, 0xe5, 0xef, 0xfb, 0xe2,
  0x12, 0xcd, 0xf0, 0xd0, 0x05, 0x1a, 0xed, 0x12, 0xf8, 0xfc, 0x0f, 0xf7,
  0xec, 0x09, 0x11, 0xd9, 0x0f, 0x00, 0x05, 0xdf, 0xed, 0x1a, 0xf1, 0x19,
  0xf3, 0x15, 0x0a, 0xe9, 0xf5, 0x0b, 0x08, 0xe1, 0x0f, 0xef, 0x00, 0xe5,
  0x06, 0x0e, 0xd6, 0x0b, 0x00, 0x07, 0x13, 0xde, 0xdf, 0x10, 0x03, 0xf0,
  0xf6, 0x01, 0xf7, 0x02, 0xec, 0x14, 0x0b, 0x1b, 0xf6, 0x15, 0x0f, 0xf7,
  0xda, 0x0c, 0x14, 0x25, 0xea, 0x18, 0x08, 0x2f, 0xeb, 0x19, 0x0e, 0x10,
  0x11, 0x1b, 0x06, 0xfe, 0xcd, 0x81, 0x0e, 0x0a, 0xd6, 0xd5, 0xdc, 0xd1,
  0x24, 0xf5, 0x12, 0xf8, 0xd9, 0xe2, 0xcc, 0xc8, 0x0c, 0xda, 0x02, 0x18,
  0x00, 0xf5, 0xdf, 0xdf, 0x32, 0xe1, 0x05, 0x0b, 0x1a, 0x07, 0xfe, 0x36,
  0xe0, 0xf8, 0xe4, 0xcc, 0x0f, 0xdd, 0xe1, 0xe9, 0x32, 0xdb, 0x2a, 0x1f,
  0x20, 0x1c, 0x12, 0x30, 0xe1, 0xe4, 0xca, 0xb4, 0x0e, 0xd2, 0xee, 0xc1,
  0x30, 0xca, 0xdb, 0x1d, 0x30, 0x06, 0x15, 0x30, 0xe2, 0xec, 0xd1, 0xc3,
  0x10, 0xf2, 0xf6, 0xea, 0x40, 0xaa, 0xd8, 0x0c, 0x24, 0x12, 0x1a, 0x30,
  0xf1, 0xc8, 0xda, 0xf8, 0x17, 0xdb, 0xf4, 0xe5, 0x1e, 0xbd, 0xdb, 0xfb,
  0x30, 0x17, 0x27, 0x25, 0xee, 0xd5, 0xfd, 0x0a, 0x21, 0xcf, 0x09, 0xf1,
  0x00, 0xbf, 0xe9, 0xff, 0x27, 0x12, 0x1c, 0x22, 0xe3, 0xd3, 0x0a, 0xfe,
  0xe3, 0xeb, 0x1a, 0x0a, 0xf6, 0xdc, 0xec, 0xfb, 0x14, 0xeb, 0x1d, 0x2c,
  0xe2, 0xe0, 0x1e, 0xdc, 0xf4, 0xec, 0xf8, 0x04, 0x04, 0xd4, 0xd9, 0x0f,
  0x18, 0x02, 0x28, 0x26, 0xdb, 0xea, 0xe4, 0xf0, 0xef, 0xfe, 0xe9, 0xf8,
  0x08, 0xe4, 0xea, 0x06, 0x04, 0x04, 0x22, 0x2b, 0xdb, 0xc6, 0xf0, 0xe8,
  0xda, 0xff, 0xe5, 0x00, 0x1d, 0xea, 0xbd, 0x07, 0x0d, 0x09, 0xef, 0xfd,
  0xfb, 0xd1, 0xd8, 0xdd, 0x10, 0x0d, 0xf4, 0xee, 0x16, 0xfb, 0xc7, 0xf9,
  0xea, 0x04, 0xd5, 0x26, 0xef, 0xf7, 0xd0, 0xd1, 0x13, 0xe5, 0xf7, 0x11,
  0x0c, 0xf5, 0xbb, 0x03, 0x0a, 0x11, 0xb7, 0x0b, 0xc3, 0x30, 0x09, 0xf8,
  0xe6, 0xf1, 0xfb, 0x17, 0xf4, 0xdb, 0x1f, 0xd3, 0xf1, 0xca, 0xde, 0x02,
  0x13, 0x09, 0x19, 0x4b, 0xd8, 0xd0, 0xdf, 0xdd, 0x04, 0xeb, 0x2c, 0xf9,
  0xbf, 0xcb, 0xd3, 0xc9, 0xf8, 0xff, 0x2b, 0x2d, 0xd1, 0xeb, 0x09, 0xf0,
  0x2e, 0xf5, 0x32, 0xea, 0xb6, 0xec, 0xd8, 0xa0, 0xfe, 0xfe, 0x3e, 0x2a,
  0xc0, 0x0f, 0x07, 0x09, 0x2c, 0xfb, 0x1f, 0xf3, 0xd6, 0xf9, 0xca, 0xd9,
  0x0a, 0x0a, 0x27, 0x2b, 0xe4, 0x0a, 0x0b, 0x0e, 0x1e, 0xfb, 0x24, 0xee,
  0xd3, 0xfd, 0xc2, 0xcc, 0xfa, 0x0b, 0x23, 0x24, 0xc5, 0x1c, 0xec, 0xfc,
  0x12, 0xf5, 0x1b, 0xde, 0xe7, 0x02, 0xda, 0xdb, 0x11, 0x0a, 0x0e, 0x22,
  0xfb, 0x17, 0x01, 0x0f, 0x18, 0xf6, 0x14, 0xe7, 0xe7, 0xff, 0xd4, 0x03,
  0xff, 0x08, 0x02, 0x14, 0x08, 0x16, 0xef, 0x19, 0xf7, 0x13, 0x1d, 0xfe,
  0xed, 0xfd, 0xdf, 0xf5, 0x11, 0x11, 0x06, 0x13, 0xd9, 0x18, 0xff, 0x0a,
  0x1d, 0xef, 0x1f, 0x06, 0xf9, 0x02, 0xd8, 0x14, 0x0a, 0x17, 0xf1, 0x11,
  0xfa, 0x0b, 0xee, 0x05, 0xfa, 0xe9, 0x15, 0x12, 0xe1, 0xff, 0xc6, 0xf5,
  0xf2, 0xfd, 0xfb, 0x19, 0xe1, 0x0b, 0xdf, 0xf6, 0xfc, 0xdb, 0x18, 0xe6,
  0xeb, 0x05, 0xe4, 0x0f, 0x08, 0xf6, 0xf3, 0x0a, 0xdc, 0xf7, 0xd8, 0xfb,
  0x05, 0xd4, 0x02, 0xec, 0xd4, 0x02, 0xff, 0x15, 0x10, 0x0d, 0xdb, 0x25,
  0xcc, 0xed, 0xe6, 0xc7, 0x00, 0xea, 0x0a, 0xe4, 0xcc, 0xf1, 0x05, 0xd5,
  0x18, 0x13, 0xe4, 0xd0, 0x1a, 0x0e, 0x26, 0x01, 0xea, 0x1d, 0xe2, 0xfa,
  0xfa, 0x12, 0x12, 0xf4, 0x0a, 0x02, 0x05, 0xed, 0x0a, 0xf7, 0x06, 0x13,
  0xf5, 0x16, 0xcd, 0x03, 0x05, 0x0b, 0x1a, 0xe8, 0x23, 0xdf, 0x05, 0xff,
  0x01, 0xf3, 0x20, 0x16, 0xff, 0x04, 0xf3, 0x08, 0xff, 0x07, 0x0c, 0xd2,
  0x36, 0xf1, 0x0b, 0x04, 0xfa, 0xfb, 0x25, 0x1a, 0xe1, 0x1e, 0xf4, 0xf0,
  0x02, 0xff, 0x05, 0xe7, 0x31, 0xeb, 0x0f, 0xf8, 0x01, 0xec, 0x38, 0x01,
  0x0c, 0x1b, 0xed, 0x05, 0x0e, 0xef, 0xf0, 0xe2, 0x2d, 0xf8, 0x17, 0xf1,
  0x16, 0xd9, 0x12, 0x05, 0x01, 0x0e, 0xf0, 0xf8, 0x1e, 0xf5, 0xfc, 0xf0,
  0x25, 0xe0, 0x12, 0xeb, 0x10, 0xe2, 0x19, 0x0b, 0x09, 0x06, 0xf2, 0x03,
  0x0d, 0xf3, 0xfe, 0xfc, 0x2a, 0xf2, 0x05, 0xe3, 0x0c, 0xf0, 0x13, 0xfd,
  0xfd, 0x0a, 0xe5, 0x08, 0x03, 0xf6, 0x01, 0xf3, 0x2e, 0xda, 0x0a, 0xc0,
  0x13, 0xe9, 0x18, 0xef, 0xf3, 0x17, 0xdc, 0xf4, 0x15, 0xe2, 0xf6, 0xfe,
  0x28, 0xef, 0xfc, 0xcc, 0x06, 0xcf, 0x19, 0x01, 0x19, 0x07, 0xf3, 0x07,
  0xfc, 0xeb, 0x01, 0xe1, 0x05, 0xef, 0x04, 0xea, 0x1a, 0xe0, 0x20, 0xf3,
  0x09, 0x0d, 0xf8, 0xf5, 0x11, 0xe7, 0x0a, 0xff, 0x0e, 0xf8, 0x16, 0xbe,
  0x0b, 0xe8, 0x04, 0xfe, 0x00, 0x10, 0x07, 0x01, 0x1b, 0xfc, 0x08, 0x0e,
  0x00, 0xdc, 0x16, 0xde, 0x34, 0xfb, 0xff, 0xe1, 0x11, 0x0e, 0xf6, 0x17,
  0xfe, 0xf5, 0x1b, 0x16, 0x15, 0x39, 0x18, 0xe7, 0xba, 0xfe, 0xff, 0xff,
  0x04, 0x00, 0x00, 0x00, 0x14, 0x00, 0x00, 0x00, 0x97, 0xfd, 0xff, 0xff,
  0x75, 0x02, 0x00, 0x00, 0x88, 0xfe, 0xff, 0xff, 0xe9, 0x03, 0x00, 0x00,
  0x3d, 0xfd, 0xff, 0xff, 0xda, 0xfe, 0xff, 0xff, 0x04, 0x00, 0x00, 0x00,
  0x08, 0x00, 0x00, 0x00, 0xff, 0xff, 0xff, 0xff, 0xd0, 0x00, 0x00, 0x00,
  0xee, 0xfe, 0xff, 0xff, 0x04, 0x00, 0x00, 0x00, 0x10, 0x00, 0x00, 0x00,
  0x01, 0x00, 0x00, 0x00, 0x19, 0x00, 0x00, 0x00, 0x01, 0x00, 0x00, 0x00,
  0x10, 0x00, 0x00, 0x00, 0x0a, 0xff, 0xff, 0xff, 0x04, 0x00, 0x00, 0x00,
  0x10, 0x00, 0x00, 0x00, 0x01, 0x00, 0x00, 0x00, 0x01, 0x00, 0x00, 0x00,
  0x19, 0x00, 0x00, 0x00, 0x08, 0x00, 0x00, 0x00, 0x26, 0xff, 0xff, 0xff,
  0x04, 0x00, 0x00, 0x00, 0x10, 0x00, 0x00, 0x00, 0x01, 0x00, 0x00, 0x00,
  0x31, 0x00, 0x00, 0x00, 0x01, 0x00, 0x00, 0x00, 0x08, 0x00, 0x00, 0x00,
  0x42, 0xff, 0xff, 0xff, 0x04, 0x00, 0x00, 0x00, 0x10, 0x00, 0x00, 0x00,
  0x01, 0x00, 0x00, 0x00, 0x01, 0x00, 0x00, 0x00, 0x31, 0x00, 0x00, 0x00,
  0x0d, 0x00, 0x00, 0x00, 0x90, 0xf0, 0xff, 0xff, 0x94, 0xf0, 0xff, 0xff,
  0x0f, 0x00, 0x00, 0x00, 0x4d, 0x4c, 0x49, 0x52, 0x20, 0x43, 0x6f, 0x6e,
  0x76, 0x65, 0x72, 0x74, 0x65, 0x64, 0x2e, 0x00, 0x01, 0x00, 0x00, 0x00,
  0x14, 0x00, 0x00, 0x00, 0x00, 0x00, 0x0e, 0x00, 0x18, 0x00, 0x14, 0x00,
  0x10, 0x00, 0x0c, 0x00, 0x08, 0x00, 0x04, 0x00, 0x0e, 0x00, 0x00, 0x00,
  0x14, 0x00, 0x00, 0x00, 0x1c, 0x00, 0x00, 0x00, 0x84, 0x02, 0x00, 0x00,
  0x88, 0x02, 0x00, 0x00, 0x8c, 0x02, 0x00, 0x00, 0x04, 0x00, 0x00, 0x00,
  0x6d, 0x61, 0x69, 0x6e, 0x00, 0x00, 0x00, 0x00, 0x0b, 0x00, 0x00, 0x00,
  0x48, 0x02, 0x00, 0x00, 0xec, 0x01, 0x00, 0x00, 0xb8, 0x01, 0x00, 0x00,
  0x68, 0x01, 0x00, 0x00, 0x44, 0x01, 0x00, 0x00, 0x00, 0x01, 0x00, 0x00,
  0xdc, 0x00, 0x00, 0x00, 0x9c, 0x00, 0x00, 0x00, 0x78, 0x00, 0x00, 0x00,
  0x40, 0x00, 0x00, 0x00, 0x04, 0x00, 0x00, 0x00, 0x4a, 0xfe, 0xff, 0xff,
  0x1c, 0x00, 0x00, 0x00, 0x00, 0x00, 0x00, 0x09, 0x1c, 0x00, 0x00, 0x00,
  0x20, 0x00, 0x00, 0x00, 0x04, 0x00, 0x00, 0x00, 0x00, 0x00, 0x06, 0x00,
  0x08, 0x00, 0x04, 0x00, 0x06, 0x00, 0x00, 0x00, 0x00, 0x00, 0x80, 0x3f,
  0x01, 0x00, 0x00, 0x00, 0x16, 0x00, 0x00, 0x00, 0x01, 0x00, 0x00, 0x00,
  0x15, 0x00, 0x00, 0x00, 0x82, 0xfe, 0xff, 0xff, 0x14, 0x00, 0x00, 0x00,
  0x00, 0x00, 0x00, 0x08, 0x10, 0x00, 0x00, 0x00, 0x14, 0x00, 0x00, 0x00,
  0x03, 0x00, 0x00, 0x00, 0x68, 0xf1, 0xff, 0xff, 0x01, 0x00, 0x00, 0x00,
  0x15, 0x00, 0x00, 0x00, 0x03, 0x00, 0x00, 0x00, 0x14, 0x00, 0x00, 0x00,
  0x07, 0x00, 0x00, 0x00, 0x06, 0x00, 0x00, 0x00, 0x5a, 0xfe, 0xff, 0xff,
  0x08, 0x00, 0x00, 0x00, 0x0c, 0x00, 0x00, 0x00, 0x01, 0x00, 0x00, 0x00,
  0x14, 0x00, 0x00, 0x00, 0x02, 0x00, 0x00, 0x00, 0x13, 0x00, 0x00, 0x00,
  0x05, 0x00, 0x00, 0x00, 0xd6, 0xfe, 0xff, 0xff, 0x14, 0x00, 0x00, 0x00,
  0x00, 0x00, 0x00, 0x05, 0x20, 0x00, 0x00, 0x00, 0x24, 0x00, 0x00, 0x00,
  0x02, 0x00, 0x00, 0x00, 0x42, 0xff, 0xff, 0xff, 0x02, 0x00, 0x00, 0x00,
  0x01, 0x00, 0x00, 0x00, 0x02, 0x00, 0x00, 0x00, 0x01, 0x00, 0x00, 0x00,
  0x01, 0x00, 0x00, 0x00, 0x13, 0x00, 0x00, 0x00, 0x01, 0x00, 0x00, 0x00,
  0x12, 0x00, 0x00, 0x00, 0xb6, 0xfe, 0xff, 0xff, 0x08, 0x00, 0x00, 0x00,
  0x0c, 0x00, 0x00, 0x00, 0x01, 0x00, 0x00, 0x00, 0x12, 0x00, 0x00, 0x00,
  0x02, 0x00, 0x00, 0x00, 0x11, 0x00, 0x00, 0x00, 0x04, 0x00, 0x00, 0x00,
  0x32, 0xff, 0xff, 0xff, 0x14, 0x00, 0x00, 0x00, 0x00, 0x00, 0x00, 0x01,
  0x1c, 0x00, 0x00, 0x00, 0x20, 0x00, 0x00, 0x00, 0x01, 0x00, 0x00, 0x00,
  0x24, 0xff, 0xff, 0xff, 0x00, 0x00, 0x00, 0x01, 0x01, 0x00, 0x00, 0x00,
  0x01, 0x00, 0x00, 0x00, 0x01, 0x00, 0x00, 0x00, 0x11, 0x00, 0x00, 0x00,
  0x03, 0x00, 0x00, 0x00, 0x10, 0x00, 0x00, 0x00, 0x09, 0x00, 0x00, 0x00,
  0x08, 0x00, 0x00, 0x00, 0x16, 0xff, 0xff, 0xff, 0x08, 0x00, 0x00, 0x00,
  0x0c, 0x00, 0x00, 0x00, 0x01, 0x00, 0x00, 0x00, 0x10, 0x00, 0x00, 0x00,
  0x02, 0x00, 0x00, 0x00, 0x0f, 0x00, 0x00, 0x00, 0x03, 0x00, 0x00, 0x00,
  0x92, 0xff, 0xff, 0xff, 0x24, 0x00, 0x00, 0x00, 0x00, 0x00, 0x00, 0x05,
  0x30, 0x00, 0x00, 0x00, 0x34, 0x00, 0x00, 0x00, 0x02, 0x00, 0x00, 0x00,
  0x00, 0x00, 0x0e, 0x00, 0x14, 0x00, 0x00, 0x00, 0x10, 0x00, 0x0c, 0x00,
  0x08, 0x00, 0x04, 0x00, 0x0e, 0x00, 0x00, 0x00, 0x02, 0x00, 0x00, 0x00,
  0x01, 0x00, 0x00, 0x00, 0x02, 0x00, 0x00, 0x00, 0x01, 0x00, 0x00, 0x00,
  0x01, 0x00, 0x00, 0x00, 0x0f, 0x00, 0x00, 0x00, 0x01, 0x00, 0x00, 0x00,
  0x0e, 0x00, 0x00, 0x00, 0x82, 0xff, 0xff, 0xff, 0x08, 0x00, 0x00, 0x00,
  0x0c, 0x00, 0x00, 0x00, 0x01, 0x00, 0x00, 0x00, 0x0e, 0x00, 0x00, 0x00,
  0x02, 0x00, 0x00, 0x00, 0x0d, 0x00, 0x00, 0x00, 0x02, 0x00, 0x00, 0x00,
  0x00, 0x00, 0x0e, 0x00, 0x18, 0x00, 0x14, 0x00, 0x10, 0x00, 0x0c, 0x00,
  0x0b, 0x00, 0x04, 0x00, 0x0e, 0x00, 0x00, 0x00, 0x20, 0x00, 0x00, 0x00,
  0x00, 0x00, 0x00, 0x01, 0x28, 0x00, 0x00, 0x00, 0x2c, 0x00, 0x00, 0x00,
  0x01, 0x00, 0x00, 0x00, 0x0c, 0x00, 0x10, 0x00, 0x00, 0x00, 0x0c, 0x00,
  0x08, 0x00, 0x07, 0x00, 0x0c, 0x00, 0x00, 0x00, 0x00, 0x00, 0x00, 0x01,
  0x01, 0x00, 0x00, 0x00, 0x01, 0x00, 0x00, 0x00, 0x01, 0x00, 0x00, 0x00,
  0x0d, 0x00, 0x00, 0x00, 0x03, 0x00, 0x00, 0x00, 0x0c, 0x00, 0x00, 0x00,
  0x0b, 0x00, 0x00, 0x00, 0x0a, 0x00, 0x00, 0x00, 0x00, 0x00, 0x0a, 0x00,
  0x0c, 0x00, 0x00, 0x00, 0x08, 0x00, 0x04, 0x00, 0x0a, 0x00, 0x00, 0x00,
  0x08, 0x00, 0x00, 0x00, 0x0c, 0x00, 0x00, 0x00, 0x01, 0x00, 0x00, 0x00,
  0x0c, 0x00, 0x00, 0x00, 0x02, 0x00, 0x00, 0x00, 0x00, 0x00, 0x00, 0x00,
  0x01, 0x00, 0x00, 0x00, 0x01, 0x00, 0x00, 0x00, 0x16, 0x00, 0x00, 0x00,
  0x01, 0x00, 0x00, 0x00, 0x00, 0x00, 0x00, 0x00, 0x17, 0x00, 0x00, 0x00,
  0xe8, 0x0c, 0x00, 0x00, 0x78, 0x0c, 0x00, 0x00, 0x24, 0x0c, 0x00, 0x00,
  0xcc, 0x0b, 0x00, 0x00, 0x74, 0x0b, 0x00, 0x00, 0x28, 0x0b, 0x00, 0x00,
  0xac, 0x0a, 0x00, 0x00, 0x40, 0x0a, 0x00, 0x00, 0x14, 0x09, 0x00, 0x00,
  0xe8, 0x07, 0x00, 0x00, 0x1c, 0x07, 0x00, 0x00, 0x50, 0x06, 0x00, 0x00,
  0xcc, 0x05, 0x00, 0x00, 0xe0, 0x04, 0x00, 0x00, 0x5c, 0x04, 0x00, 0x00,
  0xe0, 0x03, 0x00, 0x00, 0x5c, 0x03, 0x00, 0x00, 0x60, 0x02, 0x00, 0x00,
  0xdc, 0x01, 0x00, 0x00, 0x60, 0x01, 0x00, 0x00, 0xf4, 0x00, 0x00, 0x00,
  0x70, 0x00, 0x00, 0x00, 0x04, 0x00, 0x00, 0x00, 0x8a, 0xf3, 0xff, 0xff,
  0x00, 0x00, 0x00, 0x01, 0x14, 0x00, 0x00, 0x00, 0x30, 0x00, 0x00, 0x00,
  0x17, 0x00, 0x00, 0x00, 0x00, 0x00, 0x00, 0x09, 0x44, 0x00, 0x00, 0x00,
  0x74, 0xf3, 0xff, 0xff, 0x08, 0x00, 0x00, 0x00, 0x10, 0x00, 0x00, 0x00,
  0x01, 0x00, 0x00, 0x00, 0x80, 0xff, 0xff, 0xff, 0xff, 0xff, 0xff, 0xff,
  0x01, 0x00, 0x00, 0x00, 0x00, 0x00, 0x80, 0x3b, 0x19, 0x00, 0x00, 0x00,
  0x53, 0x74, 0x61, 0x74, 0x65, 0x66, 0x75, 0x6c, 0x50, 0x61, 0x72, 0x74,
  0x69, 0x74, 0x69, 0x6f, 0x6e, 0x65, 0x64, 0x43, 0x61, 0x6c, 0x6c, 0x3a,
  0x30, 0x00, 0x00, 0x00, 0x02, 0x00, 0x00, 0x00, 0x01, 0x00, 0x00, 0x00,
  0x05, 0x00, 0x00, 0x00, 0xf2, 0xf3, 0xff, 0xff, 0x00, 0x00, 0x00, 0x01,
  0x14, 0x00, 0x00, 0x00, 0x30, 0x00, 0x00, 0x00, 0x16, 0x00, 0x00, 0x00,
  0x00, 0x00, 0x00, 0x09, 0x5c, 0x00, 0x00, 0x00, 0xdc, 0xf3, 0xff, 0xff,
  0x08, 0x00, 0x00, 0x00, 0x10, 0x00, 0x00, 0x00, 0x01, 0x00, 0x00, 0x00,
  0x0c, 0x00, 0x00, 0x00, 0x00, 0x00, 0x00, 0x00, 0x01, 0x00, 0x00, 0x00,
  0xd0, 0x11, 0x13, 0x3e, 0x32, 0x00, 0x00, 0x00, 0x73, 0x65, 0x71, 0x75,
  0x65, 0x6e, 0x74, 0x69, 0x61, 0x6c, 0x2f, 0x79, 0x5f, 0x70, 0x72, 0x65,
  0x64, 0x2f, 0x4d, 0x61, 0x74, 0x4d, 0x75, 0x6c, 0x3b, 0x73, 0x65, 0x71,
  0x75, 0x65, 0x6e, 0x74, 0x69, 0x61, 0x6c, 0x2f, 0x79, 0x5f, 0x70, 0x72,
  0x65, 0x64, 0x2f, 0x42, 0x69, 0x61, 0x73, 0x41, 0x64, 0x64, 0x00, 0x00,
  0x02, 0x00, 0x00, 0x00, 0x01, 0x00, 0x00, 0x00, 0x05, 0x00, 0x00, 0x00,
  0x72, 0xf4, 0xff, 0xff, 0x00, 0x00, 0x00, 0x01, 0x14, 0x00, 0x00, 0x00,
  0x30, 0x00, 0x00, 0x00, 0x15, 0x00, 0x00, 0x00, 0x00, 0x00, 0x00, 0x09,
  0x44, 0x00, 0x00, 0x00, 0x5c, 0xf4, 0xff, 0xff, 0x08, 0x00, 0x00, 0x00,
  0x10, 0x00, 0x00, 0x00, 0x01, 0x00, 0x00, 0x00, 0x80, 0xff, 0xff, 0xff,
  0xff, 0xff, 0xff, 0xff, 0x01, 0x00, 0x00, 0x00, 0x4c, 0x4e, 0xfd, 0x3c,
  0x1a, 0x00, 0x00, 0x00, 0x73, 0x65, 0x71, 0x75, 0x65, 0x6e, 0x74, 0x69,
  0x61, 0x6c, 0x2f, 0x66, 0x6c, 0x61, 0x74, 0x74, 0x65, 0x6e, 0x2f, 0x52,
  0x65, 0x73, 0x68, 0x61, 0x70, 0x65, 0x00, 0x00, 0x02, 0x00, 0x00, 0x00,
  0x01, 0x00, 0x00, 0x00, 0xd0, 0x00, 0x00, 0x00, 0xda, 0xf4, 0xff, 0xff,
  0x00, 0x00, 0x00, 0x01, 0x14, 0x00, 0x00, 0x00, 0x30, 0x00, 0x00, 0x00,
  0x14, 0x00, 0x00, 0x00, 0x00, 0x00, 0x00, 0x09, 0x4c, 0x00, 0x00, 0x00,
  0xc4, 0xf4, 0xff, 0xff, 0x08, 0x00, 0x00, 0x00, 0x10, 0x00, 0x00, 0x00,
  0x01, 0x00, 0x00, 0x00, 0x80, 0xff, 0xff, 0xff, 0xff, 0xff, 0xff, 0xff,
  0x01, 0x00, 0x00, 0x00, 0x4c, 0x4e, 0xfd, 0x3c, 0x22, 0x00, 0x00, 0x00,
  0x73, 0x65, 0x71, 0x75, 0x65, 0x6e, 0x74, 0x69, 0x61, 0x6c, 0x2f, 0x6d,
  0x61, 0x78, 0x5f, 0x70, 0x6f, 0x6f, 0x6c, 0x69, 0x6e, 0x67, 0x31, 0x64,
  0x5f, 0x31, 0x2f, 0x4d, 0x61, 0x78, 0x50, 0x6f, 0x6f, 0x6c, 0x00, 0x00,
  0x04, 0x00, 0x00, 0x00, 0x01, 0x00, 0x00, 0x00, 0x0d, 0x00, 0x00, 0x00,
  0x01, 0x00, 0x00, 0x00, 0x10, 0x00, 0x00, 0x00, 0x52, 0xf5, 0xff, 0xff,
  0x00, 0x00, 0x00, 0x01, 0x14, 0x00, 0x00, 0x00, 0x34, 0x00, 0x00, 0x00,
  0x13, 0x00, 0x00, 0x00, 0x00, 0x00, 0x00, 0x09, 0x54, 0x00, 0x00, 0x00,
  0x3c, 0xf5, 0xff, 0xff, 0x08, 0x00, 0x00, 0x00, 0x14, 0x00, 0x00, 0x00,
  0x01, 0x00, 0x00, 0x00, 0x80, 0xff, 0xff, 0xff, 0xff, 0xff, 0xff, 0xff,
  0x00, 0x00, 0x00, 0x00, 0x01, 0x00, 0x00, 0x00, 0x4c, 0x4e, 0xfd, 0x3c,
  0x26, 0x00, 0x00, 0x00, 0x73, 0x65, 0x71, 0x75, 0x65, 0x6e, 0x74, 0x69,
  0x61, 0x6c, 0x2f, 0x6d, 0x61, 0x78, 0x5f, 0x70, 0x6f, 0x6f, 0x6c, 0x69,
  0x6e, 0x67, 0x31, 0x64, 0x5f, 0x31, 0x2f, 0x45, 0x78, 0x70, 0x61, 0x6e,
  0x64, 0x44, 0x69, 0x6d, 0x73, 0x31, 0x00, 0x00, 0x04, 0x00, 0x00, 0x00,
  0x01, 0x00, 0x00, 0x00, 0x19, 0x00, 0x00, 0x00, 0x01, 0x00, 0x00, 0x00,
  0x10, 0x00, 0x00, 0x00, 0xd2, 0xf5, 0xff, 0xff, 0x00, 0x00, 0x00, 0x01,
  0x14, 0x00, 0x00, 0x00, 0x34, 0x00, 0x00, 0x00, 0x12, 0x00, 0x00, 0x00,
  0x00, 0x00, 0x00, 0x09, 0xcc, 0x00, 0x00, 0x00, 0xbc, 0xf5, 0xff, 0xff,
  0x08, 0x00, 0x00, 0x00, 0x14, 0x00, 0x00, 0x00, 0x01, 0x00, 0x00, 0x00,
  0x80, 0xff, 0xff, 0xff, 0xff, 0xff, 0xff, 0xff, 0x00, 0x00, 0x00, 0x00,
  0x01, 0x00, 0x00, 0x00, 0x4c, 0x4e, 0xfd, 0x3c, 0x9d, 0x00, 0x00, 0x00,
  0x73, 0x65, 0x71, 0x75, 0x65, 0x6e, 0x74, 0x69, 0x61, 0x6c, 0x2f, 0x63,
  0x6f, 0x6e, 0x76, 0x31, 0x64, 0x5f, 0x31, 0x2f, 0x52, 0x65, 0x6c, 0x75,
  0x3b, 0x73, 0x65, 0x71, 0x75, 0x65, 0x6e, 0x74, 0x69, 0x61, 0x6c, 0x2f,
  0x63, 0x6f, 0x6e, 0x76, 0x31, 0x64, 0x5f, 0x31, 0x2f, 0x42, 0x69, 0x61,
  0x73, 0x41, 0x64, 0x64, 0x3b, 0x73, 0x65, 0x71, 0x75, 0x65, 0x6e, 0x74,
  0x69, 0x61, 0x6c, 0x2f, 0x63, 0x6f, 0x6e, 0x76, 0x31, 0x64, 0x5f, 0x31,
  0x2f, 0x43, 0x6f, 0x6e, 0x76, 0x31, 0x44, 0x2f, 0x53, 0x71, 0x75, 0x65,
  0x65, 0x7a, 0x65, 0x3b, 0x73, 0x65, 0x71, 0x75, 0x65, 0x6e, 0x74, 0x69,
  0x61, 0x6c, 0x2f, 0x63, 0x6f, 0x6e, 0x76, 0x31, 0x64, 0x5f, 0x31, 0x2f,
  0x42, 0x69, 0x61, 0x73, 0x41, 0x64, 0x64, 0x2f, 0x52, 0x65, 0x61, 0x64,
  0x56, 0x61, 0x72, 0x69, 0x61, 0x62, 0x6c, 0x65, 0x4f, 0x70, 0x3b, 0x73,
  0x65, 0x71, 0x75, 0x65, 0x6e, 0x74, 0x69, 0x61, 0x6c, 0x2f, 0x63, 0x6f,
  0x6e, 0x76, 0x31, 0x64, 0x5f, 0x31, 0x2f, 0x43, 0x6f, 0x6e, 0x76, 0x31,
  0x44, 0x00, 0x00, 0x00, 0x04, 0x00, 0x00, 0x00, 0x01, 0x00, 0x00, 0x00,
  0x01, 0x00, 0x00, 0x00, 0x19, 0x00, 0x00, 0x00, 0x10, 0x00, 0x00, 0x00,
  0xca, 0xf6, 0xff, 0xff, 0x00, 0x00, 0x00, 0x01, 0x14, 0x00, 0x00, 0x00,
  0x34, 0x00, 0x00, 0x00, 0x11, 0x00, 0x00, 0x00, 0x00, 0x00, 0x00, 0x09,
  0x54, 0x00, 0x00, 0x00, 0xb4, 0xf6, 0xff, 0xff, 0x08, 0x00, 0x00, 0x00,
  0x14, 0x00, 0x00, 0x00, 0x01, 0x00, 0x00, 0x00, 0x80, 0xff, 0xff, 0xff,
  0xff, 0xff, 0xff, 0xff, 0x00, 0x00, 0x00, 0x00, 0x01, 0x00, 0x00, 0x00,
  0xa1, 0x50, 0x23, 0x3d, 0x26, 0x00, 0x00, 0x00, 0x73, 0x65, 0x71, 0x75,
  0x65, 0x6e, 0x74, 0x69, 0x61, 0x6c, 0x2f, 0x63, 0x6f, 0x6e, 0x76, 0x31,
  0x64, 0x5f, 0x31, 0x2f, 0x43, 0x6f, 0x6e, 0x76, 0x31, 0x44, 0x2f, 0x45,
  0x78, 0x70, 0x61, 0x6e, 0x64, 0x44, 0x69, 0x6d, 0x73, 0x31, 0x00, 0x00,
  0x04, 0x00, 0x00, 0x00, 0x01, 0x00, 0x00, 0x00, 0x01, 0x00, 0x00, 0x00,
  0x19, 0x00, 0x00, 0x00, 0x08, 0x00, 0x00, 0x00, 0x4a, 0xf7, 0xff, 0xff,
  0x00, 0x00, 0x00, 0x01, 0x14, 0x00, 0x00, 0x00, 0x30, 0x00, 0x00, 0x00,
  0x10, 0x00, 0x00, 0x00, 0x00, 0x00, 0x00, 0x09, 0x4c, 0x00, 0x00, 0x00,
  0x34, 0xf7, 0xff, 0xff, 0x08, 0x00, 0x00, 0x00, 0x10, 0x00, 0x00, 0x00,
  0x01, 0x00, 0x00, 0x00, 0x80, 0xff, 0xff, 0xff, 0xff, 0xff, 0xff, 0xff,
  0x01, 0x00, 0x00, 0x00, 0xa1, 0x50, 0x23, 0x3d, 0x20, 0x00, 0x00, 0x00,
  0x73, 0x65, 0x71, 0x75, 0x65, 0x6e, 0x74, 0x69, 0x61, 0x6c, 0x2f, 0x6d,
  0x61, 0x78, 0x5f, 0x70, 0x6f, 0x6f, 0x6c, 0x69, 0x6e, 0x67, 0x31, 0x64,
  0x2f, 0x4d, 0x61, 0x78, 0x50, 0x6f, 0x6f, 0x6c, 0x00, 0x00, 0x00, 0x00,
  0x04, 0x00, 0x00, 0x00, 0x01, 0x00, 0x00, 0x00, 0x19, 0x00, 0x00, 0x00,
  0x01, 0x00, 0x00, 0x00, 0x08, 0x00, 0x00, 0x00, 0xc2, 0xf7, 0xff, 0xff,
  0x00, 0x00, 0x00, 0x01, 0x14, 0x00, 0x00, 0x00, 0x34, 0x00, 0x00, 0x00,
  0x0f, 0x00, 0x00, 0x00, 0x00, 0x00, 0x00, 0x09, 0x54, 0x00, 0x00, 0x00,
  0xac, 0xf7, 0xff, 0xff, 0x08, 0x00, 0x00, 0x00, 0x14, 0x00, 0x00, 0x00,
  0x01, 0x00, 0x00, 0x00, 0x80, 0xff, 0xff, 0xff, 0xff, 0xff, 0xff, 0xff,
  0x00, 0x00, 0x00, 0x00, 0x01, 0x00, 0x00, 0x00, 0xa1, 0x50, 0x23, 0x3d,
  0x24, 0x00, 0x00, 0x00, 0x73, 0x65, 0x71, 0x75, 0x65, 0x6e, 0x74, 0x69,
  0x61, 0x6c, 0x2f, 0x6d, 0x61, 0x78, 0x5f, 0x70, 0x6f, 0x6f, 0x6c, 0x69,
  0x6e, 0x67, 0x31, 0x64, 0x2f, 0x45, 0x78, 0x70, 0x61, 0x6e, 0x64, 0x44,
  0x69, 0x6d, 0x73, 0x31, 0x00, 0x00, 0x00, 0x00, 0x04, 0x00, 0x00, 0x00,
  0x01, 0x00, 0x00, 0x00, 0x31, 0x00, 0x00, 0x00, 0x01, 0x00, 0x00, 0x00,
  0x08, 0x00, 0x00, 0x00, 0x42, 0xf8, 0xff, 0xff, 0x00, 0x00, 0x00, 0x01,
  0x14, 0x00, 0x00, 0x00, 0x30, 0x00, 0x00, 0x00, 0x0e, 0x00, 0x00, 0x00,
  0x00, 0x00, 0x00, 0x09, 0xbc, 0x00, 0x00, 0x00, 0x2c, 0xf8, 0xff, 0xff,
  0x08, 0x00, 0x00, 0x00, 0x10, 0x00, 0x00, 0x00, 0x01, 0x00, 0x00, 0x00,
  0x80, 0xff, 0xff, 0xff, 0xff, 0xff, 0xff, 0xff, 0x01, 0x00, 0x00, 0x00,
  0xa1, 0x50, 0x23, 0x3d, 0x93, 0x00, 0x00, 0x00, 0x73, 0x65, 0x71, 0x75,
  0x65, 0x6e, 0x74, 0x69, 0x61, 0x6c, 0x2f, 0x63, 0x6f, 0x6e, 0x76, 0x31,
  0x64, 0x2f, 0x52, 0x65, 0x6c, 0x75, 0x3b, 0x73, 0x65, 0x71, 0x75, 0x65,
  0x6e, 0x74, 0x69, 0x61, 0x6c, 0x2f, 0x63, 0x6f, 0x6e, 0x76, 0x31, 0x64,
  0x2f, 0x42, 0x69, 0x61, 0x73, 0x41, 0x64, 0x64, 0x3b, 0x73, 0x65, 0x71,
  0x75, 0x65, 0x6e, 0x74, 0x69, 0x61, 0x6c, 0x2f, 0x63, 0x6f, 0x6e, 0x76,
  0x31, 0x64, 0x2f, 0x43, 0x6f, 0x6e, 0x76, 0x31, 0x44, 0x2f, 0x53, 0x71,
  0x75, 0x65, 0x65, 0x7a, 0x65, 0x3b, 0x73, 0x65, 0x71, 0x75, 0x65, 0x6e,
  0x74, 0x69, 0x61, 0x6c, 0x2f, 0x63, 0x6f, 0x6e, 0x76, 0x31, 0x64, 0x2f,
  0x42, 0x69, 0x61, 0x73, 0x41, 0x64, 0x64, 0x2f, 0x52, 0x65, 0x61, 0x64,
  0x56, 0x61, 0x72, 0x69, 0x61, 0x62, 0x6c, 0x65, 0x4f, 0x70, 0x3b, 0x73,
  0x65, 0x71, 0x75, 0x65, 0x6e, 0x74, 0x69, 0x61, 0x6c, 0x2f, 0x63, 0x6f,
  0x6e, 0x76, 0x31, 0x64, 0x2f, 0x43, 0x6f, 0x6e, 0x76, 0x31, 0x44, 0x00,
  0x04, 0x00, 0x00, 0x00, 0x01, 0x00, 0x00, 0x00, 0x01, 0x00, 0x00, 0x00,
  0x31, 0x00, 0x00, 0x00, 0x08, 0x00, 0x00, 0x00, 0x2a, 0xf9, 0xff, 0xff,
  0x00, 0x00, 0x00, 0x01, 0x14, 0x00, 0x00, 0x00, 0x34, 0x00, 0x00, 0x00,
  0x0d, 0x00, 0x00, 0x00, 0x00, 0x00, 0x00, 0x09, 0x54, 0x00, 0x00, 0x00,
  0x14, 0xf9, 0xff, 0xff, 0x08, 0x00, 0x00, 0x00, 0x14, 0x00, 0x00, 0x00,
  0x01, 0x00, 0x00, 0x00, 0xfa, 0xff, 0xff, 0xff, 0xff, 0xff, 0xff, 0xff,
  0x00, 0x00, 0x00, 0x00, 0x01, 0x00, 0x00, 0x00, 0x62, 0x2b, 0x62, 0x3d,
  0x24, 0x00, 0x00, 0x00, 0x73, 0x65, 0x71, 0x75, 0x65, 0x6e, 0x74, 0x69,
  0x61, 0x6c, 0x2f, 0x63, 0x6f, 0x6e, 0x76, 0x31, 0x64, 0x2f, 0x43, 0x6f,
  0x6e, 0x76, 0x31, 0x44, 0x2f, 0x45, 0x78, 0x70, 0x61, 0x6e, 0x64, 0x44,
  0x69, 0x6d, 0x73, 0x31, 0x00, 0x00, 0x00, 0x00, 0x04, 0x00, 0x00, 0x00,
  0x01, 0x00, 0x00, 0x00, 0x01, 0x00, 0x00, 0x00, 0x31, 0x00, 0x00, 0x00,
  0x0d, 0x00, 0x00, 0x00, 0xaa, 0xf9, 0xff, 0xff, 0x00, 0x00, 0x00, 0x01,
  0x14, 0x00, 0x00, 0x00, 0x88, 0x00, 0x00, 0x00, 0x0c, 0x00, 0x00, 0x00,
  0x00, 0x00, 0x00, 0x09, 0x9c, 0x00, 0x00, 0x00, 0x94, 0xf9, 0xff, 0xff,
  0x08, 0x00, 0x00, 0x00, 0x4c, 0x00, 0x00, 0x00, 0x08, 0x00, 0x00, 0x00,
  0x00, 0x00, 0x00, 0x00, 0x00, 0x00, 0x00, 0x00, 0x00, 0x00, 0x00, 0x00,
  0x00, 0x00, 0x00, 0x00, 0x00, 0x00, 0x00, 0x00, 0x00, 0x00, 0x00, 0x00,
  0x00, 0x00, 0x00, 0x00, 0x00, 0x00, 0x00, 0x00, 0x00, 0x00, 0x00, 0x00,
  0x00, 0x00, 0x00, 0x00, 0x00, 0x00, 0x00, 0x00, 0x00, 0x00, 0x00, 0x00,
  0x00, 0x00, 0x00, 0x00, 0x00, 0x00, 0x00, 0x00, 0x00, 0x00, 0x00, 0x00,
  0x00, 0x00, 0x00, 0x00, 0x00, 0x00, 0x00, 0x00, 0x08, 0x00, 0x00, 0x00,
  0xe5, 0xff, 0x9c, 0x3b, 0x43, 0xa9, 0xe8, 0x3b, 0xa1, 0xce, 0x94, 0x3b,
  0x0b, 0x11, 0x81, 0x3b, 0xba, 0xd4, 0x9a, 0x3b, 0x7e, 0x1c, 0x36, 0x3c,
  0x55, 0x10, 0x90, 0x3b, 0x00, 0x30, 0x76, 0x3b, 0x18, 0x00, 0x00, 0x00,
  0x73, 0x65, 0x71, 0x75, 0x65, 0x6e, 0x74, 0x69, 0x61, 0x6c, 0x2f, 0x63,
  0x6f, 0x6e, 0x76, 0x31, 0x64, 0x2f, 0x43, 0x6f, 0x6e, 0x76, 0x31, 0x44,
  0x00, 0x00, 0x00, 0x00, 0x04, 0x00, 0x00, 0x00, 0x08, 0x00, 0x00, 0x00,
  0x01, 0x00, 0x00, 0x00, 0x03, 0x00, 0x00, 0x00, 0x0d, 0x00, 0x00, 0x00,
  0x72, 0xfa, 0xff, 0xff, 0x00, 0x00, 0x00, 0x01, 0x14, 0x00, 0x00, 0x00,
  0x84, 0x00, 0x00, 0x00, 0x0b, 0x00, 0x00, 0x00, 0x00, 0x00, 0x00, 0x02,
  0xa8, 0x00, 0x00, 0x00, 0x5c, 0xfa, 0xff, 0xff, 0x08, 0x00, 0x00, 0x00,
  0x48, 0x00, 0x00, 0x00, 0x08, 0x00, 0x00, 0x00, 0x00, 0x00, 0x00, 0x00,
  0x00, 0x00, 0x00, 0x00, 0x00, 0x00, 0x00, 0x00, 0x00, 0x00, 0x00, 0x00,
  0x00, 0x00, 0x00, 0x00, 0x00, 0x00, 0x00, 0x00, 0x00, 0x00, 0x00, 0x00,
  0x00, 0x00, 0x00, 0x00, 0x00, 0x00, 0x00, 0x00, 0x00, 0x00, 0x00, 0x00,
  0x00, 0x00, 0x00, 0x00, 0x00, 0x00, 0x00, 0x00, 0x00, 0x00, 0x00, 0x00,
  0x00, 0x00, 0x00, 0x00, 0x00, 0x00, 0x00, 0x00, 0x00, 0x00, 0x00, 0x00,
  0x08, 0x00, 0x00, 0x00, 0x83, 0xb4, 0x8a, 0x39, 0xdb, 0x8c, 0xcd, 0x39,
  0xa2, 0x77, 0x83, 0x39, 0xd6, 0x0d, 0x64, 0x39, 0x09, 0xca, 0x88, 0x39,
  0x04, 0xe4, 0x20, 0x3a, 0xaa, 0x8d, 0x7e, 0x39, 0x18, 0x80, 0x59, 0x39,
  0x28, 0x00, 0x00, 0x00, 0x73, 0x65, 0x71, 0x75, 0x65, 0x6e, 0x74, 0x69,
  0x61, 0x6c, 0x2f, 0x63, 0x6f, 0x6e, 0x76, 0x31, 0x64, 0x2f, 0x42, 0x69,
  0x61, 0x73, 0x41, 0x64, 0x64, 0x2f, 0x52, 0x65, 0x61, 0x64, 0x56, 0x61,
  0x72, 0x69, 0x61, 0x62, 0x6c, 0x65, 0x4f, 0x70, 0x00, 0x00, 0x00, 0x00,
  0x01, 0x00, 0x00, 0x00, 0x08, 0x00, 0x00, 0x00, 0x3a, 0xfb, 0xff, 0xff,
  0x00, 0x00, 0x00, 0x01, 0x14, 0x00, 0x00, 0x00, 0xe8, 0x00, 0x00, 0x00,
  0x0a, 0x00, 0x00, 0x00, 0x00, 0x00, 0x00, 0x09, 0xfc, 0x00, 0x00, 0x00,
  0x24, 0xfb, 0xff, 0xff, 0x08, 0x00, 0x00, 0x00, 0x8c, 0x00, 0x00, 0x00,
  0x10, 0x00, 0x00, 0x00, 0x00, 0x00, 0x00, 0x00, 0x00, 0x00, 0x00, 0x00,
  0x00, 0x00, 0x00, 0x00, 0x00, 0x00, 0x00, 0x00, 0x00, 0x00, 0x00, 0x00,
  0x00, 0x00, 0x00, 0x00, 0x00, 0x00, 0x00, 0x00, 0x00, 0x00, 0x00, 0x00,
  0x00, 0x00, 0x00, 0x00, 0x00, 0x00, 0x00, 0x00, 0x00, 0x00, 0x00, 0x00,
  0x00, 0x00, 0x00, 0x00, 0x00, 0x00, 0x00, 0x00, 0x00, 0x00, 0x00, 0x00,
  0x00, 0x00, 0x00, 0x00, 0x00, 0x00, 0x00, 0x00, 0x00, 0x00, 0x00, 0x00,
  0x00, 0x00, 0x00, 0x00, 0x00, 0x00, 0x00, 0x00, 0x00, 0x00, 0x00, 0x00,
  0x00, 0x00, 0x00, 0x00, 0x00, 0x00, 0x00, 0x00, 0x00, 0x00, 0x00, 0x00,
  0x00, 0x00, 0x00, 0x00, 0x00, 0x00, 0x00, 0x00, 0x00, 0x00, 0x00, 0x00,
  0x00, 0x00, 0x00, 0x00, 0x00, 0x00, 0x00, 0x00, 0x00, 0x00, 0x00, 0x00,
  0x00, 0x00, 0x00, 0x00, 0x00, 0x00, 0x00, 0x00, 0x00, 0x00, 0x00, 0x00,
  0x00, 0x00, 0x00, 0x00, 0x10, 0x00, 0x00, 0x00, 0xa9, 0x01, 0xad, 0x3b,
  0x92, 0x88, 0x05, 0x3c, 0x3a, 0x48, 0xc9, 0x3b, 0xb3, 0x9f, 0xa9, 0x3b,
  0xed, 0xff, 0xa0, 0x3b, 0xbf, 0x3f, 0x9f, 0x3b, 0xa7, 0x26, 0x9f, 0x3b,
  0x5d, 0x1a, 0xb7, 0x3b, 0xcf, 0x8d, 0xe1, 0x3b, 0xc8, 0xf6, 0x9c, 0x3b,
  0xb0, 0x3e, 0xb6, 0x3b, 0x07, 0x49, 0x02, 0x3c, 0x64, 0x34, 0xfd, 0x3b,
  0x90, 0xd0, 0xb9, 0x3b, 0x04, 0xa3, 0xf9, 0x3b, 0x1e, 0xbb, 0xa9, 0x3b,
  0x1a, 0x00, 0x00, 0x00, 0x73, 0x65, 0x71, 0x75, 0x65, 0x6e, 0x74, 0x69,
  0x61, 0x6c, 0x2f, 0x63, 0x6f, 0x6e, 0x76, 0x31, 0x64, 0x5f, 0x31, 0x2f,
  0x43, 0x6f, 0x6e, 0x76, 0x31, 0x44, 0x00, 0x00, 0x04, 0x00, 0x00, 0x00,
  0x10, 0x00, 0x00, 0x00, 0x01, 0x00, 0x00, 0x00, 0x03, 0x00, 0x00, 0x00,
  0x08, 0x00, 0x00, 0x00, 0x62, 0xfc, 0xff, 0xff, 0x00, 0x00, 0x00, 0x01,
  0x14, 0x00, 0x00, 0x00, 0xe4, 0x00, 0x00, 0x00, 0x09, 0x00, 0x00, 0x00,
  0x00, 0x00, 0x00, 0x02, 0x08, 0x01, 0x00, 0x00, 0x4c, 0xfc, 0xff, 0xff,
  0x08, 0x00, 0x00, 0x00, 0x88, 0x00, 0x00, 0x00, 0x10, 0x00, 0x00, 0x00,
  0x00, 0x00, 0x00, 0x00, 0x00, 0x00, 0x00, 0x00, 0x00, 0x00, 0x00, 0x00,
  0x00, 0x00, 0x00, 0x00, 0x00, 0x00, 0x00, 0x00, 0x00, 0x00, 0x00, 0x00,
  0x00, 0x00, 0x00, 0x00, 0x00, 0x00, 0x00, 0x00, 0x00, 0x00, 0x00, 0x00,
  0x00, 0x00, 0x00, 0x00, 0x00, 0x00, 0x00, 0x00, 0x00, 0x00, 0x00, 0x00,
  0x00, 0x00, 0x00, 0x00, 0x00, 0x00, 0x00, 0x00, 0x00, 0x00, 0x00, 0x00,
  0x00, 0x00, 0x00, 0x00, 0x00, 0x00, 0x00, 0x00, 0x00, 0x00, 0x00, 0x00,
  0x00, 0x00, 0x00, 0x00, 0x00, 0x00, 0x00, 0x00, 0x00, 0x00, 0x00, 0x00,
  0x00, 0x00, 0x00, 0x00, 0x00, 0x00, 0x00, 0x00, 0x00, 0x00, 0x00, 0x00,
  0x00, 0x00, 0x00, 0x00, 0x00, 0x00, 0x00, 0x00, 0x00, 0x00, 0x00, 0x00,
  0x00, 0x00, 0x00, 0x00, 0x00, 0x00, 0x00, 0x00, 0x00, 0x00, 0x00, 0x00,
  0x00, 0x00, 0x00, 0x00, 0x00, 0x00, 0x00, 0x00, 0x10, 0x00, 0x00, 0x00,
  0x18, 0xbd, 0x5c, 0x39, 0x07, 0x60, 0xaa, 0x39, 0x62, 0x68, 0x80, 0x39,
  0x37, 0x6c, 0x58, 0x39, 0x52, 0x6b, 0x4d, 0x39, 0x7d, 0x2f, 0x4b, 0x39,
  0x79, 0x0f, 0x4b, 0x39, 0xe9, 0x9e, 0x69, 0x39, 0x55, 0xe4, 0x8f, 0x39,
  0x22, 0x45, 0x48, 0x39, 0xa1, 0x86, 0x68, 0x39, 0x10, 0x3b, 0xa6, 0x39,
  0x1b, 0x88, 0xa1, 0x39, 0xa3, 0x14, 0x6d, 0x39, 0x6b, 0x41, 0x9f, 0x39,
  0x33, 0x8f, 0x58, 0x39, 0x2a, 0x00, 0x00, 0x00, 0x73, 0x65, 0x71, 0x75,
  0x65, 0x6e, 0x74, 0x69, 0x61, 0x6c, 0x2f, 0x63, 0x6f, 0x6e, 0x76, 0x31,
  0x64, 0x5f, 0x31, 0x2f, 0x42, 0x69, 0x61, 0x73, 0x41, 0x64, 0x64, 0x2f,
  0x52, 0x65, 0x61, 0x64, 0x56, 0x61, 0x72, 0x69, 0x61, 0x62, 0x6c, 0x65,
  0x4f, 0x70, 0x00, 0x00, 0x01, 0x00, 0x00, 0x00, 0x10, 0x00, 0x00, 0x00,
  0x8a, 0xfd, 0xff, 0xff, 0x00, 0x00, 0x00, 0x01, 0x14, 0x00, 0x00, 0x00,
  0x30, 0x00, 0x00, 0x00, 0x08, 0x00, 0x00, 0x00, 0x00, 0x00, 0x00, 0x09,
  0x44, 0x00, 0x00, 0x00, 0x74, 0xfd, 0xff, 0xff, 0x08, 0x00, 0x00, 0x00,
  0x10, 0x00, 0x00, 0x00, 0x01, 0x00, 0x00, 0x00, 0x00, 0x00, 0x00, 0x00,
  0x00, 0x00, 0x00, 0x00, 0x01, 0x00, 0x00, 0x00, 0x2b, 0x45, 0x22, 0x3c,
  0x18, 0x00, 0x00, 0x00, 0x73, 0x65, 0x71, 0x75, 0x65, 0x6e, 0x74, 0x69,
  0x61, 0x6c, 0x2f, 0x79, 0x5f, 0x70, 0x72, 0x65, 0x64, 0x2f, 0x4d, 0x61,
  0x74, 0x4d, 0x75, 0x6c, 0x00, 0x00, 0x00, 0x00, 0x02, 0x00, 0x00, 0x00,
  0x05, 0x00, 0x00, 0x00, 0xd0, 0x00, 0x00, 0x00, 0xf2, 0xfd, 0xff, 0xff,
  0x00, 0x00, 0x00, 0x01, 0x14, 0x00, 0x00, 0x00, 0x34, 0x00, 0x00, 0x00,
  0x07, 0x00, 0x00, 0x00, 0x00, 0x00, 0x00, 0x02, 0x58, 0x00, 0x00, 0x00,
  0xdc, 0xfd, 0xff, 0xff, 0x08, 0x00, 0x00, 0x00, 0x14, 0x00, 0x00, 0x00,
  0x01, 0x00, 0x00, 0x00, 0x00, 0x00, 0x00, 0x00, 0x00, 0x00, 0x00, 0x00,
  0x00, 0x00, 0x00, 0x00, 0x01, 0x00, 0x00, 0x00, 0xfd, 0x8f, 0xa0, 0x39,
  0x28, 0x00, 0x00, 0x00, 0x73, 0x65, 0x71, 0x75, 0x65, 0x6e, 0x74, 0x69,
  0x61, 0x6c, 0x2f, 0x79, 0x5f, 0x70, 0x72, 0x65, 0x64, 0x2f, 0x42, 0x69,
  0x61, 0x73, 0x41, 0x64, 0x64, 0x2f, 0x52, 0x65, 0x61, 0x64, 0x56, 0x61,
  0x72, 0x69, 0x61, 0x62, 0x6c, 0x65, 0x4f, 0x70, 0x00, 0x00, 0x00, 0x00,
  0x01, 0x00, 0x00, 0x00, 0x05, 0x00, 0x00, 0x00, 0x6a, 0xfe, 0xff, 0xff,
  0x00, 0x00, 0x00, 0x01, 0x14, 0x00, 0x00, 0x00, 0x14, 0x00, 0x00, 0x00,
  0x06, 0x00, 0x00, 0x00, 0x00, 0x00, 0x00, 0x02, 0x28, 0x00, 0x00, 0x00,
  0xc0, 0xfe, 0xff, 0xff, 0x18, 0x00, 0x00, 0x00, 0x73, 0x65, 0x71, 0x75,
  0x65, 0x6e, 0x74, 0x69, 0x61, 0x6c, 0x2f, 0x66, 0x6c, 0x61, 0x74, 0x74,
  0x65, 0x6e, 0x2f, 0x43, 0x6f, 0x6e, 0x73, 0x74, 0x00, 0x00, 0x00, 0x00,
  0x01, 0x00, 0x00, 0x00, 0x02, 0x00, 0x00, 0x00, 0xb2, 0xfe, 0xff, 0xff,
  0x00, 0x00, 0x00, 0x01, 0x14, 0x00, 0x00, 0x00, 0x14, 0x00, 0x00, 0x00,
  0x05, 0x00, 0x00, 0x00, 0x00, 0x00, 0x00, 0x02, 0x34, 0x00, 0x00, 0x00,
  0x08, 0xff, 0xff, 0xff, 0x25, 0x00, 0x00, 0x00, 0x73, 0x65, 0x71, 0x75,
  0x65, 0x6e, 0x74, 0x69, 0x61, 0x6c, 0x2f, 0x6d, 0x61, 0x78, 0x5f, 0x70,
  0x6f, 0x6f, 0x6c, 0x69, 0x6e, 0x67, 0x31, 0x64, 0x5f, 0x31, 0x2f, 0x45,
  0x78, 0x70, 0x61, 0x6e, 0x64, 0x44, 0x69, 0x6d, 0x73, 0x00, 0x00, 0x00,
  0x01, 0x00, 0x00, 0x00, 0x04, 0x00, 0x00, 0x00, 0x06, 0xff, 0xff, 0xff,
  0x00, 0x00, 0x00, 0x01, 0x14, 0x00, 0x00, 0x00, 0x14, 0x00, 0x00, 0x00,
  0x04, 0x00, 0x00, 0x00, 0x00, 0x00, 0x00, 0x02, 0x34, 0x00, 0x00, 0x00,
  0x5c, 0xff, 0xff, 0xff, 0x25, 0x00, 0x00, 0x00, 0x73, 0x65, 0x71, 0x75,
  0x65, 0x6e, 0x74, 0x69, 0x61, 0x6c, 0x2f, 0x63, 0x6f, 0x6e, 0x76, 0x31,
  0x64, 0x5f, 0x31, 0x2f, 0x43, 0x6f, 0x6e, 0x76, 0x31, 0x44, 0x2f, 0x45,
  0x78, 0x70, 0x61, 0x6e, 0x64, 0x44, 0x69, 0x6d, 0x73, 0x00, 0x00, 0x00,
  0x01, 0x00, 0x00, 0x00, 0x04, 0x00, 0x00, 0x00, 0x5a, 0xff, 0xff, 0xff,
  0x00, 0x00, 0x00, 0x01, 0x14, 0x00, 0x00, 0x00, 0x14, 0x00, 0x00, 0x00,
  0x03, 0x00, 0x00, 0x00, 0x00, 0x00, 0x00, 0x02, 0x30, 0x00, 0x00, 0x00,
  0xb0, 0xff, 0xff, 0xff, 0x23, 0x00, 0x00, 0x00, 0x73, 0x65, 0x71, 0x75,
  0x65, 0x6e, 0x74, 0x69, 0x61, 0x6c, 0x2f, 0x6d, 0x61, 0x78, 0x5f, 0x70,
  0x6f, 0x6f, 0x6c, 0x69, 0x6e, 0x67, 0x31, 0x64, 0x2f, 0x45, 0x78, 0x70,
  0x61, 0x6e, 0x64, 0x44, 0x69, 0x6d, 0x73, 0x00, 0x01, 0x00, 0x00, 0x00,
  0x04, 0x00, 0x00, 0x00, 0xaa, 0xff, 0xff, 0xff, 0x00, 0x00, 0x00, 0x01,
  0x18, 0x00, 0x00, 0x00, 0x18, 0x00, 0x00, 0x00, 0x02, 0x00, 0x00, 0x00,
  0x00, 0x00, 0x00, 0x02, 0x34, 0x00, 0x00, 0x00, 0x04, 0x00, 0x04, 0x00,
  0x04, 0x00, 0x00, 0x00, 0x23, 0x00, 0x00, 0x00, 0x73, 0x65, 0x71, 0x75,
  0x65, 0x6e, 0x74, 0x69, 0x61, 0x6c, 0x2f, 0x63, 0x6f, 0x6e, 0x76, 0x31,
  0x64, 0x2f, 0x43, 0x6f, 0x6e, 0x76, 0x31, 0x44, 0x2f, 0x45, 0x78, 0x70,
  0x61, 0x6e, 0x64, 0x44, 0x69, 0x6d, 0x73, 0x00, 0x01, 0x00, 0x00, 0x00,
  0x04, 0x00, 0x00, 0x00, 0x00, 0x00, 0x16, 0x00, 0x1c, 0x00, 0x18, 0x00,
  0x17, 0x00, 0x10, 0x00, 0x0c, 0x00, 0x08, 0x00, 0x00, 0x00, 0x00, 0x00,
  0x00, 0x00, 0x07, 0x00, 0x16, 0x00, 0x00, 0x00, 0x00, 0x00, 0x00, 0x01,
  0x20, 0x00, 0x00, 0x00, 0x3c, 0x00, 0x00, 0x00, 0x01, 0x00, 0x00, 0x00,
  0x00, 0x00, 0x00, 0x09, 0x48, 0x00, 0x00, 0x00, 0x0c, 0x00, 0x0c, 0x00,
  0x00, 0x00, 0x00, 0x00, 0x08, 0x00, 0x04, 0x00, 0x0c, 0x00, 0x00, 0x00,
  0x08, 0x00, 0x00, 0x00, 0x10, 0x00, 0x00, 0x00, 0x01, 0x00, 0x00, 0x00,
  0xfa, 0xff, 0xff, 0xff, 0xff, 0xff, 0xff, 0xff, 0x01, 0x00, 0x00, 0x00,
  0x62, 0x2b, 0x62, 0x3d, 0x13, 0x00, 0x00, 0x00, 0x73, 0x65, 0x72, 0x76,
  0x69, 0x6e, 0x67, 0x5f, 0x64, 0x65, 0x66, 0x61, 0x75, 0x6c, 0x74, 0x5f,
  0x78, 0x3a, 0x30, 0x00, 0x02, 0x00, 0x00, 0x00, 0x01, 0x00, 0x00, 0x00,
  0x7d, 0x02, 0x00, 0x00, 0x05, 0x00, 0x00, 0x00, 0x6c, 0x00, 0x00, 0x00,
  0x4c, 0x00, 0x00, 0x00, 0x2c, 0x00, 0x00, 0x00, 0x18, 0x00, 0x00, 0x00,
  0x04, 0x00, 0x00, 0x00, 0xd0, 0xff, 0xff, 0xff, 0x19, 0x00, 0x00, 0x00,
  0x02, 0x00, 0x00, 0x00, 0x00, 0x00, 0x00, 0x19, 0xe0, 0xff, 0xff, 0xff,
  0x09, 0x00, 0x00, 0x00, 0x04, 0x00, 0x00, 0x00, 0x00, 0x00, 0x00, 0x09,
  0xf0, 0xff, 0xff, 0xff, 0x11, 0x00, 0x00, 0x00, 0x02, 0x00, 0x00, 0x00,
  0x00, 0x00, 0x00, 0x11, 0x0c, 0x00, 0x10, 0x00, 0x0f, 0x00, 0x00, 0x00,
  0x08, 0x00, 0x04, 0x00, 0x0c, 0x00, 0x00, 0x00, 0x03, 0x00, 0x00, 0x00,
  0x03, 0x00, 0x00, 0x00, 0x00, 0x00, 0x00, 0x03, 0x0c, 0x00, 0x0c, 0x00,
  0x0b, 0x00, 0x00, 0x00, 0x00, 0x00, 0x04, 0x00, 0x0c, 0x00, 0x00, 0x00,
  0x16, 0x00, 0x00, 0x00, 0x00, 0x00, 0x00, 0x16
};
unsigned int tflite_learn_6_len = 6872;
#endif // _EI_CLASSIFIER_TFLITE_LEARN_6_H_
